{
  "version": "1.0",
  "truncation": null,
  "padding": null,
  "added_tokens": [
    {
      "id": 0,
      "content": "<unk>",
      "single_word": false,
      "lstrip": false,
      "rstrip": false,
      "normalized": false,
      "special": true
    },
    {
      "id": 1,
      "content": "<pad>",
      "single_word": false,
      "lstrip": false,
      "rstrip": false,
      "normalized": false,
      "special": true
    },
    {
      "id": 2,
      "content": "<|endoftext|>",
      "single_word": false,
      "lstrip": false,
      "rstrip": false,
      "normalized": false,
      "special": true
    },
    {
      "id": 3,
      "content": "<question>",
      "single_word": false,
      "lstrip": false,
      "rstrip": false,
      "normalized": false,
      "special": true
    },
    {
      "id": 4,
      "content": "<context>",
      "single_word": false,
      "lstrip": false,
      "rstrip": false,
      "normalized": false,
      "special": true
    },
    {
      "id": 5,
      "content": "<answer>",
      "single_word": false,
      "lstrip": false,
      "rstrip": false,
      "normalized": false,
      "special": true
    },
    {
      "id": 6,
      "content": "<no_answer>",
      "single_word": false,
      "lstrip": false,
      "rstrip": false,
      "normalized": false,
      "special": true
    }
  ],
  "normalizer": {
    "type": "Sequence",
    "normalizers": [
      {
        "type": "NFD"
      },
      {
        "type": "Lowercase"
      },
      {
        "type": "StripAccents"
      }
    ]
  },
  "pre_tokenizer": {
    "type": "Whitespace"
  },
  "post_processor": null,
  "decoder": {
    "type": "WordPiece",
    "prefix": "##",
    "cleanup": true
  },
  "model": {
    "type": "WordPiece",
    "unk_token": "<unk>",
    "continuing_subword_prefix": "##",
    "max_input_chars_per_word": 100,
    "vocab": {
      "<unk>": 0,
      "<pad>": 1,
      "<|endoftext|>": 2,
      "<question>": 3,
      "<context>": 4,
      "<answer>": 5,
      "<no_answer>": 6,
      "!": 7,
      "\"": 8,
      "#": 9,
      "$": 10,
      "%": 11,
      "&": 12,
      "'": 13,
      "(": 14,
      ")": 15,
      "*": 16,
      "+": 17,
      ",": 18,
      "-": 19,
      ".": 20,
      "/": 21,
      "0": 22,
      "1": 23,
      "2": 24,
      "3": 25,
      "4": 26,
      "5": 27,
      "6": 28,
      "7": 29,
      "8": 30,
      "9": 31,
      ":": 32,
      ";": 33,
      "<": 34,
      "=": 35,
      ">": 36,
      "?": 37,
      "@": 38,
      "[": 39,
      "\\": 40,
      "]": 41,
      "^": 42,
      "_": 43,
      "`": 44,
      "a": 45,
      "b": 46,
      "c": 47,
      "d": 48,
      "e": 49,
      "f": 50,
      "g": 51,
      "h": 52,
      "i": 53,
      "j": 54,
      "k": 55,
      "l": 56,
      "m": 57,
      "n": 58,
      "o": 59,
      "p": 60,
      "q": 61,
      "r": 62,
      "s": 63,
      "t": 64,
      "u": 65,
      "v": 66,
      "w": 67,
      "x": 68,
      "y": 69,
      "z": 70,
      "{": 71,
      "|": 72,
      "}": 73,
      "~": 74,
      "¡": 75,
      "¢": 76,
      "£": 77,
      "¥": 78,
      "§": 79,
      "©": 80,
      "«": 81,
      "­": 82,
      "®": 83,
      "¯": 84,
      "°": 85,
      "±": 86,
      "²": 87,
      "³": 88,
      "´": 89,
      "µ": 90,
      "¶": 91,
      "·": 92,
      "¹": 93,
      "º": 94,
      "»": 95,
      "¼": 96,
      "½": 97,
      "¾": 98,
      "¿": 99,
      "×": 100,
      "ß": 101,
      "æ": 102,
      "ð": 103,
      "÷": 104,
      "ø": 105,
      "þ": 106,
      "đ": 107,
      "ħ": 108,
      "ı": 109,
      "ł": 110,
      "ŋ": 111,
      "œ": 112,
      "ſ": 113,
      "ƒ": 114,
      "ǀ": 115,
      "ǂ": 116,
      "ǝ": 117,
      "ɐ": 118,
      "ɑ": 119,
      "ɒ": 120,
      "ɓ": 121,
      "ɔ": 122,
      "ɕ": 123,
      "ɖ": 124,
      "ə": 125,
      "ɛ": 126,
      "ɜ": 127,
      "ɟ": 128,
      "ɡ": 129,
      "ɢ": 130,
      "ɣ": 131,
      "ɦ": 132,
      "ɨ": 133,
      "ɪ": 134,
      "ɫ": 135,
      "ɬ": 136,
      "ɮ": 137,
      "ɯ": 138,
      "ɲ": 139,
      "ɳ": 140,
      "ɴ": 141,
      "ɵ": 142,
      "ɸ": 143,
      "ɻ": 144,
      "ɾ": 145,
      "ʀ": 146,
      "ʁ": 147,
      "ʂ": 148,
      "ʃ": 149,
      "ʈ": 150,
      "ʉ": 151,
      "ʊ": 152,
      "ʋ": 153,
      "ʌ": 154,
      "ʍ": 155,
      "ʎ": 156,
      "ʏ": 157,
      "ʐ": 158,
      "ʑ": 159,
      "ʒ": 160,
      "ʔ": 161,
      "ʕ": 162,
      "ʝ": 163,
      "ʰ": 164,
      "ʱ": 165,
      "ʲ": 166,
      "ʳ": 167,
      "ʷ": 168,
      "ʻ": 169,
      "ʼ": 170,
      "ʾ": 171,
      "ʿ": 172,
      "ˀ": 173,
      "ˁ": 174,
      "ˈ": 175,
      "ˌ": 176,
      "ː": 177,
      "ˑ": 178,
      "˘": 179,
      "˚": 180,
      "ˠ": 181,
      "ˣ": 182,
      "ˤ": 183,
      "˥": 184,
      "˧": 185,
      "˩": 186,
      "α": 187,
      "β": 188,
      "γ": 189,
      "δ": 190,
      "ε": 191,
      "ζ": 192,
      "η": 193,
      "θ": 194,
      "ι": 195,
      "κ": 196,
      "λ": 197,
      "μ": 198,
      "ν": 199,
      "ξ": 200,
      "ο": 201,
      "π": 202,
      "ρ": 203,
      "ς": 204,
      "σ": 205,
      "τ": 206,
      "υ": 207,
      "φ": 208,
      "χ": 209,
      "ψ": 210,
      "ω": 211,
      "ϕ": 212,
      "а": 213,
      "б": 214,
      "в": 215,
      "г": 216,
      "д": 217,
      "е": 218,
      "ж": 219,
      "з": 220,
      "и": 221,
      "к": 222,
      "л": 223,
      "м": 224,
      "н": 225,
      "о": 226,
      "п": 227,
      "р": 228,
      "с": 229,
      "т": 230,
      "у": 231,
      "ф": 232,
      "х": 233,
      "ц": 234,
      "ч": 235,
      "ш": 236,
      "щ": 237,
      "ъ": 238,
      "ы": 239,
      "ь": 240,
      "э": 241,
      "ю": 242,
      "я": 243,
      "ђ": 244,
      "є": 245,
      "і": 246,
      "ј": 247,
      "љ": 248,
      "њ": 249,
      "ћ": 250,
      "ա": 251,
      "բ": 252,
      "գ": 253,
      "դ": 254,
      "ե": 255,
      "զ": 256,
      "է": 257,
      "ը": 258,
      "թ": 259,
      "ի": 260,
      "լ": 261,
      "խ": 262,
      "ծ": 263,
      "կ": 264,
      "հ": 265,
      "ղ": 266,
      "մ": 267,
      "յ": 268,
      "ն": 269,
      "շ": 270,
      "ո": 271,
      "չ": 272,
      "պ": 273,
      "ջ": 274,
      "ռ": 275,
      "ս": 276,
      "վ": 277,
      "տ": 278,
      "ր": 279,
      "ց": 280,
      "ւ": 281,
      "փ": 282,
      "ք": 283,
      "א": 284,
      "ב": 285,
      "ג": 286,
      "ד": 287,
      "ה": 288,
      "ו": 289,
      "ז": 290,
      "ח": 291,
      "ט": 292,
      "י": 293,
      "כ": 294,
      "ל": 295,
      "ם": 296,
      "מ": 297,
      "ן": 298,
      "נ": 299,
      "ס": 300,
      "ע": 301,
      "ף": 302,
      "פ": 303,
      "ץ": 304,
      "צ": 305,
      "ק": 306,
      "ר": 307,
      "ש": 308,
      "ת": 309,
      "،": 310,
      "ء": 311,
      "ا": 312,
      "ب": 313,
      "ة": 314,
      "ت": 315,
      "ث": 316,
      "ج": 317,
      "ح": 318,
      "خ": 319,
      "د": 320,
      "ذ": 321,
      "ر": 322,
      "ز": 323,
      "س": 324,
      "ش": 325,
      "ص": 326,
      "ض": 327,
      "ط": 328,
      "ظ": 329,
      "ع": 330,
      "غ": 331,
      "ف": 332,
      "ق": 333,
      "ك": 334,
      "ل": 335,
      "م": 336,
      "ن": 337,
      "ه": 338,
      "و": 339,
      "ى": 340,
      "ي": 341,
      "پ": 342,
      "ڠ": 343,
      "ک": 344,
      "گ": 345,
      "ہ": 346,
      "ی": 347,
      "ܐ": 348,
      "ܘ": 349,
      "ܠ": 350,
      "अ": 351,
      "आ": 352,
      "इ": 353,
      "उ": 354,
      "क": 355,
      "ग": 356,
      "घ": 357,
      "ङ": 358,
      "च": 359,
      "ज": 360,
      "ट": 361,
      "ड": 362,
      "ण": 363,
      "त": 364,
      "थ": 365,
      "द": 366,
      "ध": 367,
      "न": 368,
      "प": 369,
      "ब": 370,
      "भ": 371,
      "म": 372,
      "य": 373,
      "र": 374,
      "ल": 375,
      "व": 376,
      "श": 377,
      "ष": 378,
      "स": 379,
      "ह": 380,
      "ऽ": 381,
      "।": 382,
      "॥": 383,
      "ক": 384,
      "ত": 385,
      "ন": 386,
      "ব": 387,
      "ম": 388,
      "র": 389,
      "ল": 390,
      "ਲ": 391,
      "அ": 392,
      "க": 393,
      "ங": 394,
      "ச": 395,
      "ண": 396,
      "த": 397,
      "ந": 398,
      "ன": 399,
      "ப": 400,
      "ம": 401,
      "ய": 402,
      "ர": 403,
      "ல": 404,
      "ள": 405,
      "வ": 406,
      "ಡ": 407,
      "ರ": 408,
      "ก": 409,
      "ข": 410,
      "ค": 411,
      "ง": 412,
      "จ": 413,
      "ช": 414,
      "ญ": 415,
      "ฐ": 416,
      "ณ": 417,
      "ด": 418,
      "ต": 419,
      "ถ": 420,
      "ท": 421,
      "ธ": 422,
      "น": 423,
      "บ": 424,
      "ป": 425,
      "พ": 426,
      "ภ": 427,
      "ม": 428,
      "ย": 429,
      "ร": 430,
      "ล": 431,
      "ว": 432,
      "ศ": 433,
      "ษ": 434,
      "ส": 435,
      "ห": 436,
      "อ": 437,
      "ะ": 438,
      "า": 439,
      "ำ": 440,
      "฿": 441,
      "เ": 442,
      "แ": 443,
      "โ": 444,
      "ใ": 445,
      "ไ": 446,
      "་": 447,
      "ག": 448,
      "ས": 449,
      "င": 450,
      "ဆ": 451,
      "န": 452,
      "ပ": 453,
      "မ": 454,
      "ရ": 455,
      "ა": 456,
      "ბ": 457,
      "გ": 458,
      "დ": 459,
      "ე": 460,
      "ვ": 461,
      "თ": 462,
      "ი": 463,
      "კ": 464,
      "ლ": 465,
      "მ": 466,
      "ნ": 467,
      "ო": 468,
      "რ": 469,
      "ს": 470,
      "ტ": 471,
      "უ": 472,
      "ქ": 473,
      "წ": 474,
      "ხ": 475,
      "჻": 476,
      "ᄀ": 477,
      "ᄂ": 478,
      "ᄃ": 479,
      "ᄅ": 480,
      "ᄆ": 481,
      "ᄇ": 482,
      "ᄉ": 483,
      "ᄋ": 484,
      "ᄌ": 485,
      "ᄎ": 486,
      "ᄐ": 487,
      "ᄑ": 488,
      "ᄒ": 489,
      "ᅡ": 490,
      "ᅢ": 491,
      "ᅣ": 492,
      "ᅥ": 493,
      "ᅦ": 494,
      "ᅧ": 495,
      "ᅩ": 496,
      "ᅪ": 497,
      "ᅭ": 498,
      "ᅮ": 499,
      "ᅲ": 500,
      "ᅳ": 501,
      "ᅴ": 502,
      "ᅵ": 503,
      "ᆨ": 504,
      "ᆫ": 505,
      "ᆯ": 506,
      "ᆷ": 507,
      "ᆸ": 508,
      "ᆺ": 509,
      "ᆼ": 510,
      "ለ": 511,
      "አ": 512,
      "የ": 513,
      "፡": 514,
      "ក": 515,
      "ង": 516,
      "ច": 517,
      "ណ": 518,
      "ត": 519,
      "ទ": 520,
      "ន": 521,
      "ប": 522,
      "ព": 523,
      "ម": 524,
      "យ": 525,
      "រ": 526,
      "វ": 527,
      "ស": 528,
      "ហ": 529,
      "ᡝ": 530,
      "ᵻ": 531,
      "​": 532,
      "‌": 533,
      "‍": 534,
      "‐": 535,
      "‑": 536,
      "‒": 537,
      "–": 538,
      "—": 539,
      "―": 540,
      "‘": 541,
      "’": 542,
      "‚": 543,
      "“": 544,
      "”": 545,
      "„": 546,
      "†": 547,
      "‡": 548,
      "•": 549,
      "…": 550,
      "‰": 551,
      "′": 552,
      "″": 553,
      "※": 554,
      "⁄": 555,
      "⁡": 556,
      "ⁿ": 557,
      "₁": 558,
      "₂": 559,
      "₃": 560,
      "₡": 561,
      "₣": 562,
      "₤": 563,
      "₦": 564,
      "₨": 565,
      "₩": 566,
      "₫": 567,
      "€": 568,
      "₱": 569,
      "₹": 570,
      "℃": 571,
      "ℓ": 572,
      "№": 573,
      "™": 574,
      "⅓": 575,
      "⅔": 576,
      "⅛": 577,
      "⅜": 578,
      "⅝": 579,
      "↑": 580,
      "→": 581,
      "↗": 582,
      "↦": 583,
      "⇌": 584,
      "∂": 585,
      "∆": 586,
      "∈": 587,
      "∑": 588,
      "−": 589,
      "∕": 590,
      "∖": 591,
      "∗": 592,
      "√": 593,
      "∞": 594,
      "∩": 595,
      "∪": 596,
      "∴": 597,
      "∼": 598,
      "≈": 599,
      "≡": 600,
      "≤": 601,
      "≥": 602,
      "⊂": 603,
      "⊕": 604,
      "⊗": 605,
      "⊙": 606,
      "⊥": 607,
      "⋅": 608,
      "⌊": 609,
      "⌋": 610,
      "█": 611,
      "★": 612,
      "☆": 613,
      "☉": 614,
      "♠": 615,
      "♣": 616,
      "♥": 617,
      "♦": 618,
      "♭": 619,
      "♮": 620,
      "♯": 621,
      "⟦": 622,
      "⟧": 623,
      "⟨": 624,
      "⟩": 625,
      "ⴰ": 626,
      "ⴻ": 627,
      "ⴽ": 628,
      "ⵉ": 629,
      "ⵍ": 630,
      "ⵎ": 631,
      "ⵏ": 632,
      "ⵓ": 633,
      "ⵔ": 634,
      "ⵙ": 635,
      "ⵜ": 636,
      "、": 637,
      "。": 638,
      "々": 639,
      "〈": 640,
      "〉": 641,
      "「": 642,
      "」": 643,
      "『": 644,
      "』": 645,
      "〜": 646,
      "あ": 647,
      "ぃ": 648,
      "い": 649,
      "う": 650,
      "え": 651,
      "お": 652,
      "か": 653,
      "き": 654,
      "く": 655,
      "け": 656,
      "こ": 657,
      "さ": 658,
      "し": 659,
      "す": 660,
      "せ": 661,
      "そ": 662,
      "た": 663,
      "ち": 664,
      "っ": 665,
      "つ": 666,
      "て": 667,
      "と": 668,
      "な": 669,
      "に": 670,
      "ね": 671,
      "の": 672,
      "は": 673,
      "ひ": 674,
      "ふ": 675,
      "へ": 676,
      "ほ": 677,
      "ま": 678,
      "み": 679,
      "む": 680,
      "め": 681,
      "も": 682,
      "ゃ": 683,
      "や": 684,
      "ゅ": 685,
      "ゆ": 686,
      "ょ": 687,
      "よ": 688,
      "ら": 689,
      "り": 690,
      "る": 691,
      "れ": 692,
      "ろ": 693,
      "わ": 694,
      "を": 695,
      "ん": 696,
      "ァ": 697,
      "ア": 698,
      "ィ": 699,
      "イ": 700,
      "ゥ": 701,
      "ウ": 702,
      "ェ": 703,
      "エ": 704,
      "ォ": 705,
      "オ": 706,
      "カ": 707,
      "キ": 708,
      "ク": 709,
      "ケ": 710,
      "コ": 711,
      "サ": 712,
      "シ": 713,
      "ス": 714,
      "セ": 715,
      "ソ": 716,
      "タ": 717,
      "チ": 718,
      "ッ": 719,
      "ツ": 720,
      "テ": 721,
      "ト": 722,
      "ナ": 723,
      "ニ": 724,
      "ネ": 725,
      "ノ": 726,
      "ハ": 727,
      "ヒ": 728,
      "フ": 729,
      "ヘ": 730,
      "ホ": 731,
      "マ": 732,
      "ミ": 733,
      "ム": 734,
      "メ": 735,
      "モ": 736,
      "ャ": 737,
      "ヤ": 738,
      "ュ": 739,
      "ユ": 740,
      "ョ": 741,
      "ヨ": 742,
      "ラ": 743,
      "リ": 744,
      "ル": 745,
      "レ": 746,
      "ロ": 747,
      "ワ": 748,
      "ン": 749,
      "・": 750,
      "ー": 751,
      "一": 752,
      "七": 753,
      "万": 754,
      "三": 755,
      "上": 756,
      "下": 757,
      "不": 758,
      "世": 759,
      "东": 760,
      "丞": 761,
      "个": 762,
      "中": 763,
      "丸": 764,
      "为": 765,
      "主": 766,
      "久": 767,
      "之": 768,
      "乙": 769,
      "九": 770,
      "也": 771,
      "书": 772,
      "乱": 773,
      "了": 774,
      "争": 775,
      "事": 776,
      "二": 777,
      "云": 778,
      "五": 779,
      "井": 780,
      "亦": 781,
      "京": 782,
      "人": 783,
      "今": 784,
      "介": 785,
      "仙": 786,
      "代": 787,
      "令": 788,
      "件": 789,
      "伊": 790,
      "会": 791,
      "伝": 792,
      "伯": 793,
      "住": 794,
      "佐": 795,
      "体": 796,
      "何": 797,
      "佛": 798,
      "作": 799,
      "你": 800,
      "佳": 801,
      "使": 802,
      "信": 803,
      "修": 804,
      "倉": 805,
      "個": 806,
      "候": 807,
      "側": 808,
      "傅": 809,
      "傭": 810,
      "像": 811,
      "僕": 812,
      "儿": 813,
      "元": 814,
      "先": 815,
      "光": 816,
      "克": 817,
      "全": 818,
      "八": 819,
      "公": 820,
      "六": 821,
      "共": 822,
      "兵": 823,
      "其": 824,
      "内": 825,
      "冒": 826,
      "写": 827,
      "军": 828,
      "出": 829,
      "刀": 830,
      "分": 831,
      "列": 832,
      "刘": 833,
      "初": 834,
      "判": 835,
      "別": 836,
      "利": 837,
      "制": 838,
      "刻": 839,
      "前": 840,
      "剛": 841,
      "剣": 842,
      "劇": 843,
      "劉": 844,
      "力": 845,
      "加": 846,
      "动": 847,
      "動": 848,
      "勝": 849,
      "化": 850,
      "北": 851,
      "匹": 852,
      "区": 853,
      "區": 854,
      "十": 855,
      "千": 856,
      "华": 857,
      "卒": 858,
      "南": 859,
      "博": 860,
      "印": 861,
      "厘": 862,
      "原": 863,
      "去": 864,
      "友": 865,
      "双": 866,
      "叔": 867,
      "取": 868,
      "口": 869,
      "古": 870,
      "可": 871,
      "台": 872,
      "史": 873,
      "右": 874,
      "号": 875,
      "司": 876,
      "合": 877,
      "同": 878,
      "名": 879,
      "向": 880,
      "君": 881,
      "吳": 882,
      "吴": 883,
      "吹": 884,
      "告": 885,
      "周": 886,
      "呼": 887,
      "和": 888,
      "咲": 889,
      "品": 890,
      "哈": 891,
      "唄": 892,
      "唐": 893,
      "商": 894,
      "問": 895,
      "善": 896,
      "喜": 897,
      "器": 898,
      "四": 899,
      "回": 900,
      "団": 901,
      "国": 902,
      "國": 903,
      "園": 904,
      "圖": 905,
      "土": 906,
      "在": 907,
      "地": 908,
      "坂": 909,
      "坊": 910,
      "坡": 911,
      "型": 912,
      "城": 913,
      "堂": 914,
      "堆": 915,
      "報": 916,
      "場": 917,
      "塊": 918,
      "士": 919,
      "壽": 920,
      "夏": 921,
      "外": 922,
      "多": 923,
      "夜": 924,
      "夢": 925,
      "大": 926,
      "天": 927,
      "太": 928,
      "夫": 929,
      "奇": 930,
      "奈": 931,
      "奉": 932,
      "奥": 933,
      "女": 934,
      "好": 935,
      "妹": 936,
      "姉": 937,
      "始": 938,
      "姫": 939,
      "婷": 940,
      "子": 941,
      "字": 942,
      "季": 943,
      "学": 944,
      "孩": 945,
      "孫": 946,
      "學": 947,
      "宅": 948,
      "宇": 949,
      "守": 950,
      "安": 951,
      "宗": 952,
      "官": 953,
      "宙": 954,
      "定": 955,
      "宝": 956,
      "実": 957,
      "客": 958,
      "宫": 959,
      "宮": 960,
      "家": 961,
      "宿": 962,
      "寄": 963,
      "富": 964,
      "寧": 965,
      "寶": 966,
      "寺": 967,
      "寿": 968,
      "将": 969,
      "尉": 970,
      "小": 971,
      "少": 972,
      "尾": 973,
      "局": 974,
      "居": 975,
      "屋": 976,
      "山": 977,
      "岛": 978,
      "岡": 979,
      "島": 980,
      "崎": 981,
      "川": 982,
      "州": 983,
      "工": 984,
      "左": 985,
      "巨": 986,
      "巻": 987,
      "市": 988,
      "师": 989,
      "希": 990,
      "帝": 991,
      "師": 992,
      "常": 993,
      "平": 994,
      "年": 995,
      "幸": 996,
      "幻": 997,
      "府": 998,
      "度": 999,
      "庭": 1000,
      "康": 1001,
      "廷": 1002,
      "建": 1003,
      "廻": 1004,
      "式": 1005,
      "弘": 1006,
      "张": 1007,
      "弥": 1008,
      "張": 1009,
      "強": 1010,
      "形": 1011,
      "彦": 1012,
      "彩": 1013,
      "彭": 1014,
      "影": 1015,
      "役": 1016,
      "彼": 1017,
      "律": 1018,
      "後": 1019,
      "徐": 1020,
      "徒": 1021,
      "御": 1022,
      "德": 1023,
      "心": 1024,
      "忍": 1025,
      "志": 1026,
      "忘": 1027,
      "念": 1028,
      "思": 1029,
      "怪": 1030,
      "恋": 1031,
      "恩": 1032,
      "悠": 1033,
      "悪": 1034,
      "想": 1035,
      "意": 1036,
      "愛": 1037,
      "成": 1038,
      "我": 1039,
      "战": 1040,
      "戦": 1041,
      "戰": 1042,
      "戸": 1043,
      "房": 1044,
      "所": 1045,
      "手": 1046,
      "打": 1047,
      "技": 1048,
      "投": 1049,
      "拉": 1050,
      "拳": 1051,
      "探": 1052,
      "摩": 1053,
      "撃": 1054,
      "支": 1055,
      "攻": 1056,
      "放": 1057,
      "政": 1058,
      "教": 1059,
      "文": 1060,
      "斎": 1061,
      "斗": 1062,
      "斬": 1063,
      "新": 1064,
      "方": 1065,
      "旋": 1066,
      "族": 1067,
      "旗": 1068,
      "日": 1069,
      "旦": 1070,
      "早": 1071,
      "昌": 1072,
      "明": 1073,
      "星": 1074,
      "春": 1075,
      "時": 1076,
      "景": 1077,
      "曜": 1078,
      "曲": 1079,
      "書": 1080,
      "曹": 1081,
      "最": 1082,
      "會": 1083,
      "月": 1084,
      "有": 1085,
      "望": 1086,
      "朝": 1087,
      "期": 1088,
      "木": 1089,
      "未": 1090,
      "本": 1091,
      "朱": 1092,
      "李": 1093,
      "村": 1094,
      "杜": 1095,
      "束": 1096,
      "条": 1097,
      "来": 1098,
      "東": 1099,
      "松": 1100,
      "板": 1101,
      "林": 1102,
      "枚": 1103,
      "枝": 1104,
      "校": 1105,
      "株": 1106,
      "桃": 1107,
      "案": 1108,
      "桑": 1109,
      "桜": 1110,
      "梅": 1111,
      "條": 1112,
      "椎": 1113,
      "極": 1114,
      "楼": 1115,
      "楽": 1116,
      "様": 1117,
      "樂": 1118,
      "権": 1119,
      "樹": 1120,
      "機": 1121,
      "次": 1122,
      "歌": 1123,
      "正": 1124,
      "武": 1125,
      "歩": 1126,
      "死": 1127,
      "殺": 1128,
      "殻": 1129,
      "殿": 1130,
      "比": 1131,
      "毛": 1132,
      "氏": 1133,
      "民": 1134,
      "気": 1135,
      "水": 1136,
      "氷": 1137,
      "永": 1138,
      "汉": 1139,
      "江": 1140,
      "沖": 1141,
      "沢": 1142,
      "河": 1143,
      "治": 1144,
      "泉": 1145,
      "法": 1146,
      "波": 1147,
      "洋": 1148,
      "津": 1149,
      "洲": 1150,
      "活": 1151,
      "流": 1152,
      "浅": 1153,
      "浦": 1154,
      "海": 1155,
      "清": 1156,
      "港": 1157,
      "湊": 1158,
      "湖": 1159,
      "溜": 1160,
      "溪": 1161,
      "漢": 1162,
      "瀬": 1163,
      "火": 1164,
      "灼": 1165,
      "為": 1166,
      "無": 1167,
      "然": 1168,
      "熊": 1169,
      "片": 1170,
      "版": 1171,
      "牙": 1172,
      "牛": 1173,
      "物": 1174,
      "狐": 1175,
      "狗": 1176,
      "狼": 1177,
      "獣": 1178,
      "玄": 1179,
      "玉": 1180,
      "王": 1181,
      "現": 1182,
      "球": 1183,
      "理": 1184,
      "甘": 1185,
      "生": 1186,
      "用": 1187,
      "田": 1188,
      "由": 1189,
      "男": 1190,
      "町": 1191,
      "画": 1192,
      "界": 1193,
      "番": 1194,
      "白": 1195,
      "百": 1196,
      "的": 1197,
      "皇": 1198,
      "皮": 1199,
      "目": 1200,
      "直": 1201,
      "相": 1202,
      "真": 1203,
      "眼": 1204,
      "着": 1205,
      "知": 1206,
      "石": 1207,
      "研": 1208,
      "礁": 1209,
      "礮": 1210,
      "社": 1211,
      "神": 1212,
      "祭": 1213,
      "福": 1214,
      "秀": 1215,
      "秋": 1216,
      "科": 1217,
      "積": 1218,
      "空": 1219,
      "突": 1220,
      "立": 1221,
      "竜": 1222,
      "章": 1223,
      "竹": 1224,
      "第": 1225,
      "等": 1226,
      "節": 1227,
      "篇": 1228,
      "米": 1229,
      "精": 1230,
      "系": 1231,
      "紀": 1232,
      "約": 1233,
      "紅": 1234,
      "紋": 1235,
      "紫": 1236,
      "組": 1237,
      "絵": 1238,
      "經": 1239,
      "継": 1240,
      "綾": 1241,
      "線": 1242,
      "編": 1243,
      "縣": 1244,
      "经": 1245,
      "羅": 1246,
      "美": 1247,
      "群": 1248,
      "義": 1249,
      "羽": 1250,
      "翼": 1251,
      "老": 1252,
      "者": 1253,
      "耕": 1254,
      "耿": 1255,
      "联": 1256,
      "聖": 1257,
      "育": 1258,
      "胡": 1259,
      "能": 1260,
      "臣": 1261,
      "自": 1262,
      "興": 1263,
      "舞": 1264,
      "航": 1265,
      "船": 1266,
      "艦": 1267,
      "良": 1268,
      "色": 1269,
      "芝": 1270,
      "花": 1271,
      "芳": 1272,
      "苑": 1273,
      "苗": 1274,
      "若": 1275,
      "英": 1276,
      "茶": 1277,
      "草": 1278,
      "菜": 1279,
      "華": 1280,
      "落": 1281,
      "葉": 1282,
      "蒼": 1283,
      "蔵": 1284,
      "薇": 1285,
      "薔": 1286,
      "藍": 1287,
      "藤": 1288,
      "蘭": 1289,
      "虎": 1290,
      "蛇": 1291,
      "蛍": 1292,
      "螺": 1293,
      "血": 1294,
      "行": 1295,
      "術": 1296,
      "街": 1297,
      "衛": 1298,
      "裁": 1299,
      "装": 1300,
      "裏": 1301,
      "裕": 1302,
      "補": 1303,
      "西": 1304,
      "要": 1305,
      "見": 1306,
      "視": 1307,
      "角": 1308,
      "解": 1309,
      "言": 1310,
      "計": 1311,
      "記": 1312,
      "許": 1313,
      "詩": 1314,
      "話": 1315,
      "語": 1316,
      "説": 1317,
      "談": 1318,
      "譚": 1319,
      "議": 1320,
      "词": 1321,
      "话": 1322,
      "谷": 1323,
      "豊": 1324,
      "象": 1325,
      "豪": 1326,
      "貴": 1327,
      "賞": 1328,
      "賦": 1329,
      "赤": 1330,
      "走": 1331,
      "起": 1332,
      "超": 1333,
      "越": 1334,
      "趙": 1335,
      "足": 1336,
      "路": 1337,
      "身": 1338,
      "軍": 1339,
      "転": 1340,
      "輔": 1341,
      "輪": 1342,
      "輿": 1343,
      "農": 1344,
      "迷": 1345,
      "送": 1346,
      "逆": 1347,
      "通": 1348,
      "造": 1349,
      "連": 1350,
      "進": 1351,
      "遁": 1352,
      "道": 1353,
      "達": 1354,
      "遠": 1355,
      "選": 1356,
      "邊": 1357,
      "那": 1358,
      "邪": 1359,
      "郎": 1360,
      "部": 1361,
      "郷": 1362,
      "都": 1363,
      "里": 1364,
      "重": 1365,
      "野": 1366,
      "量": 1367,
      "金": 1368,
      "鉄": 1369,
      "銀": 1370,
      "錬": 1371,
      "鐘": 1372,
      "長": 1373,
      "长": 1374,
      "門": 1375,
      "開": 1376,
      "間": 1377,
      "闘": 1378,
      "關": 1379,
      "阳": 1380,
      "阿": 1381,
      "陈": 1382,
      "降": 1383,
      "限": 1384,
      "院": 1385,
      "陳": 1386,
      "陵": 1387,
      "険": 1388,
      "陽": 1389,
      "隊": 1390,
      "隠": 1391,
      "雀": 1392,
      "雄": 1393,
      "集": 1394,
      "雪": 1395,
      "雲": 1396,
      "零": 1397,
      "雷": 1398,
      "震": 1399,
      "霊": 1400,
      "霧": 1401,
      "靈": 1402,
      "青": 1403,
      "非": 1404,
      "面": 1405,
      "韓": 1406,
      "音": 1407,
      "頭": 1408,
      "顔": 1409,
      "風": 1410,
      "风": 1411,
      "飛": 1412,
      "館": 1413,
      "首": 1414,
      "香": 1415,
      "馬": 1416,
      "騒": 1417,
      "马": 1418,
      "骨": 1419,
      "高": 1420,
      "鬼": 1421,
      "魂": 1422,
      "魔": 1423,
      "魚": 1424,
      "鳥": 1425,
      "鳩": 1426,
      "鴻": 1427,
      "黃": 1428,
      "黄": 1429,
      "黒": 1430,
      "鼓": 1431,
      "龍": 1432,
      "龙": 1433,
      "ﬁ": 1434,
      "ﬂ": 1435,
      "﻿": 1436,
      "！": 1437,
      "（": 1438,
      "）": 1439,
      "，": 1440,
      "：": 1441,
      "＝": 1442,
      "？": 1443,
      "ｐ": 1444,
      "～": 1445,
      "･": 1446,
      "￥": 1447,
      "##e": 1448,
      "##r": 1449,
      "##h": 1450,
      "##u": 1451,
      "##n": 1452,
      "##a": 1453,
      "##c": 1454,
      "##d": 1455,
      "##m": 1456,
      "##i": 1457,
      "##l": 1458,
      "##y": 1459,
      "##s": 1460,
      "##t": 1461,
      "##g": 1462,
      "##b": 1463,
      "##o": 1464,
      "##z": 1465,
      "##9": 1466,
      "##f": 1467,
      "##8": 1468,
      "##6": 1469,
      "##j": 1470,
      "##w": 1471,
      "##v": 1472,
      "##k": 1473,
      "##p": 1474,
      "##x": 1475,
      "##q": 1476,
      "##3": 1477,
      "##7": 1478,
      "##.": 1479,
      "##ς": 1480,
      "##2": 1481,
      "##1": 1482,
      "##0": 1483,
      "##4": 1484,
      "##5": 1485,
      "##ι": 1486,
      "##ø": 1487,
      "##ð": 1488,
      "##,": 1489,
      "##@": 1490,
      "##-": 1491,
      "##ク": 1492,
      "###": 1493,
      "##ل": 1494,
      "##ł": 1495,
      "##н": 1496,
      "##ル": 1497,
      "##а": 1498,
      "##ß": 1499,
      "##æ": 1500,
      "##'": 1501,
      "##ィ": 1502,
      "##р": 1503,
      "##α": 1504,
      "##τ": 1505,
      "##ν": 1506,
      "##ː": 1507,
      "##ˈ": 1508,
      "##ο": 1509,
      "##đ": 1510,
      "##к": 1511,
      "##т": 1512,
      "##л": 1513,
      "##κ": 1514,
      "##ʻ": 1515,
      "##`": 1516,
      "##ト": 1517,
      "##и": 1518,
      "##ー": 1519,
      "##в": 1520,
      "##υ": 1521,
      "##": 1522,
      "##er": 1523,
      "##in": 1524,
      "##on": 1525,
      "##an": 1526,
      "##es": 1527,
      "##ed": 1528,
      "##en": 1529,
      "##ar": 1530,
      "##at": 1531,
      "##al": 1532,
      "##or": 1533,
      "##ing": 1534,
      "##is": 1535,
      "##ic": 1536,
      "##it": 1537,
      "##el": 1538,
      "##ion": 1539,
      "##ur": 1540,
      "##as": 1541,
      "##le": 1542,
      "##ro": 1543,
      "##us": 1544,
      "##il": 1545,
      "##et": 1546,
      "##ol": 1547,
      "##ch": 1548,
      "##ra": 1549,
      "in": 1550,
      "##re": 1551,
      "##ent": 1552,
      "##om": 1553,
      "##am": 1554,
      "re": 1555,
      "##ers": 1556,
      "##un": 1557,
      "##ct": 1558,
      "##ri": 1559,
      "##ut": 1560,
      "##ul": 1561,
      "##os": 1562,
      "st": 1563,
      "##ot": 1564,
      "##id": 1565,
      "##ad": 1566,
      "##ation": 1567,
      "##ly": 1568,
      "##ac": 1569,
      "##ig": 1570,
      "##um": 1571,
      "##ter": 1572,
      "##iv": 1573,
      "##em": 1574,
      "ch": 1575,
      "##ag": 1576,
      "con": 1577,
      "##ir": 1578,
      "##st": 1579,
      "##im": 1580,
      "an": 1581,
      "un": 1582,
      "##ist": 1583,
      "##th": 1584,
      "##ab": 1585,
      "##and": 1586,
      "##od": 1587,
      "##ess": 1588,
      "##est": 1589,
      "en": 1590,
      "##ph": 1591,
      "##ow": 1592,
      "##ce": 1593,
      "##pp": 1594,
      "sh": 1595,
      "de": 1596,
      "##ay": 1597,
      "##ck": 1598,
      "##og": 1599,
      "##ant": 1600,
      "##ard": 1601,
      "al": 1602,
      "ar": 1603,
      "##ian": 1604,
      "pro": 1605,
      "##ak": 1606,
      "##ff": 1607,
      "##ver": 1608,
      "ex": 1609,
      "##op": 1610,
      "su": 1611,
      "sp": 1612,
      "th": 1613,
      "##qu": 1614,
      "##ap": 1615,
      "##ell": 1616,
      "##ous": 1617,
      "##ate": 1618,
      "##ies": 1619,
      "##ia": 1620,
      "dis": 1621,
      "##av": 1622,
      "##ie": 1623,
      "##ip": 1624,
      "com": 1625,
      "##ill": 1626,
      "co": 1627,
      "##ts": 1628,
      "##all": 1629,
      "##end": 1630,
      "##if": 1631,
      "##ud": 1632,
      "##ated": 1633,
      "ad": 1634,
      "##ib": 1635,
      "##ine": 1636,
      "##ug": 1637,
      "se": 1638,
      "##pt": 1639,
      "##ity": 1640,
      "##lo": 1641,
      "##iz": 1642,
      "##ect": 1643,
      "##ran": 1644,
      "##ast": 1645,
      "##ive": 1646,
      "im": 1647,
      "le": 1648,
      "am": 1649,
      "as": 1650,
      "##ain": 1651,
      "##ens": 1652,
      "##ical": 1653,
      "##ass": 1654,
      "##ort": 1655,
      "##ors": 1656,
      "at": 1657,
      "##ey": 1658,
      "##man": 1659,
      "##cc": 1660,
      "##und": 1661,
      "cl": 1662,
      "##pl": 1663,
      "##ish": 1664,
      "sc": 1665,
      "em": 1666,
      "ne": 1667,
      "ro": 1668,
      "##art": 1669,
      "or": 1670,
      "##ions": 1671,
      "##igh": 1672,
      "##oc": 1673,
      "pr": 1674,
      "##ton": 1675,
      "##ick": 1676,
      "##ub": 1677,
      "be": 1678,
      "##ment": 1679,
      "##ok": 1680,
      "##ack": 1681,
      "##per": 1682,
      "pl": 1683,
      "##ang": 1684,
      "##ath": 1685,
      "##ru": 1686,
      "el": 1687,
      "qu": 1688,
      "##ah": 1689,
      "ab": 1690,
      "##our": 1691,
      "ph": 1692,
      "##ust": 1693,
      "mar": 1694,
      "##ec": 1695,
      "##ov": 1696,
      "##ial": 1697,
      "##ry": 1698,
      "##der": 1699,
      "##ik": 1700,
      "##able": 1701,
      "##cl": 1702,
      "##sh": 1703,
      "##te": 1704,
      "he": 1705,
      "##aw": 1706,
      "##ber": 1707,
      "bo": 1708,
      "##ach": 1709,
      "##ord": 1710,
      "fl": 1711,
      "##ations": 1712,
      "car": 1713,
      "##ary": 1714,
      "##ge": 1715,
      "##ne": 1716,
      "##ating": 1717,
      "par": 1718,
      "##ron": 1719,
      "for": 1720,
      "res": 1721,
      "##ire": 1722,
      "sub": 1723,
      "bl": 1724,
      "col": 1725,
      "##ted": 1726,
      "##ting": 1727,
      "##act": 1728,
      "##ons": 1729,
      "inter": 1730,
      "##les": 1731,
      "is": 1732,
      "##ric": 1733,
      "per": 1734,
      "pre": 1735,
      "rec": 1736,
      "ag": 1737,
      "##ob": 1738,
      "##ans": 1739,
      "##ely": 1740,
      "##pr": 1741,
      "br": 1742,
      "##ee": 1743,
      "19": 1744,
      "##ure": 1745,
      "##age": 1746,
      "18": 1747,
      "##ins": 1748,
      "17": 1749,
      "tra": 1750,
      "wh": 1751,
      "int": 1752,
      "##ley": 1753,
      "cont": 1754,
      "mon": 1755,
      "##ann": 1756,
      "##anc": 1757,
      "ob": 1758,
      "##uc": 1759,
      "##sc": 1760,
      "ind": 1761,
      "sch": 1762,
      "##ood": 1763,
      "##ind": 1764,
      "##az": 1765,
      "##yn": 1766,
      "##iss": 1767,
      "##olog": 1768,
      "on": 1769,
      "##ps": 1770,
      "##ates": 1771,
      "16": 1772,
      "app": 1773,
      "bar": 1774,
      "so": 1775,
      "##ys": 1776,
      "##ence": 1777,
      "##ings": 1778,
      "##ugh": 1779,
      "me": 1780,
      "##ium": 1781,
      "comp": 1782,
      "er": 1783,
      "it": 1784,
      "ol": 1785,
      "##ier": 1786,
      "##als": 1787,
      "cor": 1788,
      "sl": 1789,
      "##ich": 1790,
      "il": 1791,
      "##ym": 1792,
      "##ism": 1793,
      "##ash": 1794,
      "##orm": 1795,
      "##yl": 1796,
      "##ight": 1797,
      "lo": 1798,
      "over": 1799,
      "##ett": 1800,
      "##ide": 1801,
      "##ign": 1802,
      "##own": 1803,
      "sw": 1804,
      "##au": 1805,
      "ant": 1806,
      "##ars": 1807,
      "##ally": 1808,
      "##ith": 1809,
      "out": 1810,
      "##ore": 1811,
      "cr": 1812,
      "##ult": 1813,
      "##co": 1814,
      "##de": 1815,
      "##row": 1816,
      "te": 1817,
      "##eld": 1818,
      "ac": 1819,
      "mo": 1820,
      "##ied": 1821,
      "inc": 1822,
      "##ost": 1823,
      "acc": 1824,
      "man": 1825,
      "##ks": 1826,
      "##ern": 1827,
      "##erm": 1828,
      "ass": 1829,
      "gu": 1830,
      "##up": 1831,
      "##ond": 1832,
      "##ram": 1833,
      "15": 1834,
      "##ax": 1835,
      "##ail": 1836,
      "##air": 1837,
      "##one": 1838,
      "##ance": 1839,
      "inf": 1840,
      "##uth": 1841,
      "har": 1842,
      "##se": 1843,
      "##ong": 1844,
      "##ene": 1845,
      "##enc": 1846,
      "##bo": 1847,
      "##old": 1848,
      "comm": 1849,
      "om": 1850,
      "##ale": 1851,
      "##ents": 1852,
      "imp": 1853,
      "ed": 1854,
      "tran": 1855,
      "we": 1856,
      "sk": 1857,
      "##io": 1858,
      "##sp": 1859,
      "##enn": 1860,
      "gr": 1861,
      "ic": 1862,
      "##ert": 1863,
      "##int": 1864,
      "##ator": 1865,
      "ste": 1866,
      "##ve": 1867,
      "##ics": 1868,
      "##oll": 1869,
      "ul": 1870,
      "##ets": 1871,
      "di": 1872,
      "mc": 1873,
      "##ue": 1874,
      "##af": 1875,
      "##ition": 1876,
      "##he": 1877,
      "##att": 1878,
      "gra": 1879,
      "pe": 1880,
      "##land": 1881,
      "##ger": 1882,
      "hy": 1883,
      "rel": 1884,
      "##ile": 1885,
      "##sk": 1886,
      "##son": 1887,
      "##amp": 1888,
      "av": 1889,
      "bra": 1890,
      "##ious": 1891,
      "##itt": 1892,
      "##unt": 1893,
      "ap": 1894,
      "##led": 1895,
      "ev": 1896,
      "po": 1897,
      "##ham": 1898,
      "##app": 1899,
      "##ling": 1900,
      "##ite": 1901,
      "##ically": 1902,
      "des": 1903,
      "tr": 1904,
      "##gr": 1905,
      "##ater": 1906,
      "##ict": 1907,
      "##lect": 1908,
      "bre": 1909,
      "ur": 1910,
      "##ere": 1911,
      "ref": 1912,
      "bur": 1913,
      "min": 1914,
      "met": 1915,
      "sur": 1916,
      "##bur": 1917,
      "##its": 1918,
      "##rig": 1919,
      "##oth": 1920,
      "cons": 1921,
      "gl": 1922,
      "id": 1923,
      "##ai": 1924,
      "##vers": 1925,
      "rem": 1926,
      "##ists": 1927,
      "def": 1928,
      "bro": 1929,
      "ig": 1930,
      "##uk": 1931,
      "##ful": 1932,
      "##00": 1933,
      "rep": 1934,
      "att": 1935,
      "do": 1936,
      "##red": 1937,
      "##ipp": 1938,
      "##rop": 1939,
      "reg": 1940,
      "##ized": 1941,
      "ret": 1942,
      "##ix": 1943,
      "conf": 1944,
      "op": 1945,
      "##ner": 1946,
      "##aur": 1947,
      "##erv": 1948,
      "inv": 1949,
      "##rib": 1950,
      "##ace": 1951,
      "os": 1952,
      "##ev": 1953,
      "##ae": 1954,
      "##ats": 1955,
      "fe": 1956,
      "ho": 1957,
      "her": 1958,
      "pol": 1959,
      "##ield": 1960,
      "##inc": 1961,
      "##ise": 1962,
      "##ott": 1963,
      "##ians": 1964,
      "fo": 1965,
      "ir": 1966,
      "##way": 1967,
      "##raph": 1968,
      "str": 1969,
      "cal": 1970,
      "##aj": 1971,
      "##ft": 1972,
      "##ank": 1973,
      "##ities": 1974,
      "##els": 1975,
      "##ction": 1976,
      "and": 1977,
      "sm": 1978,
      "##con": 1979,
      "##ina": 1980,
      "##ane": 1981,
      "##arm": 1982,
      "##atch": 1983,
      "##rid": 1984,
      "ot": 1985,
      "sal": 1986,
      "ins": 1987,
      "to": 1988,
      "ut": 1989,
      "##res": 1990,
      "##ines": 1991,
      "##ark": 1992,
      "##orth": 1993,
      "##ice": 1994,
      "##oss": 1995,
      "exp": 1996,
      "go": 1997,
      "##ised": 1998,
      "##eth": 1999,
      "trans": 2000,
      "del": 2001,
      "ge": 2002,
      "gre": 2003,
      "mer": 2004,
      "##inn": 2005,
      "##eng": 2006,
      "##let": 2007,
      "##ement": 2008,
      "ent": 2009,
      "bu": 2010,
      "red": 2011,
      "##ward": 2012,
      "##rim": 2013,
      "##ose": 2014,
      "dec": 2015,
      "dep": 2016,
      "cap": 2017,
      "##ler": 2018,
      "##ald": 2019,
      "##ory": 2020,
      "ext": 2021,
      "mag": 2022,
      "##ged": 2023,
      "##ock": 2024,
      "##ink": 2025,
      "##orn": 2026,
      "##ild": 2027,
      "emb": 2028,
      "dist": 2029,
      "##ana": 2030,
      "##ork": 2031,
      "est": 2032,
      "od": 2033,
      "##eg": 2034,
      "##are": 2035,
      "##ures": 2036,
      "##rom": 2037,
      "##ung": 2038,
      "##ular": 2039,
      "##que": 2040,
      "ak": 2041,
      "##ss": 2042,
      "##atic": 2043,
      "##ative": 2044,
      "##uss": 2045,
      "rev": 2046,
      "under": 2047,
      "##cept": 2048,
      "arch": 2049,
      "bel": 2050,
      "dem": 2051,
      "et": 2052,
      "ep": 2053,
      "fre": 2054,
      "##ew": 2055,
      "##ness": 2056,
      "##gan": 2057,
      "##ille": 2058,
      "##ade": 2059,
      "char": 2060,
      "ca": 2061,
      "gro": 2062,
      "jo": 2063,
      "mor": 2064,
      "##be": 2065,
      "##ract": 2066,
      "##umb": 2067,
      "##ants": 2068,
      "all": 2069,
      "ast": 2070,
      "og": 2071,
      "##uch": 2072,
      "##out": 2073,
      "##ves": 2074,
      "##ush": 2075,
      "inst": 2076,
      "##ull": 2077,
      "und": 2078,
      "super": 2079,
      "det": 2080,
      "pur": 2081,
      "ter": 2082,
      "##du": 2083,
      "##ius": 2084,
      "##by": 2085,
      "##ase": 2086,
      "##ograph": 2087,
      "##ific": 2088,
      "cy": 2089,
      "kn": 2090,
      "med": 2091,
      "mac": 2092,
      "sn": 2093,
      "ser": 2094,
      "um": 2095,
      "##ered": 2096,
      "##ont": 2097,
      "##ility": 2098,
      "dev": 2099,
      "disc": 2100,
      "air": 2101,
      "cur": 2102,
      "cre": 2103,
      "dra": 2104,
      "##ual": 2105,
      "##ient": 2106,
      "##arr": 2107,
      "##ele": 2108,
      "ang": 2109,
      "##ments": 2110,
      "ham": 2111,
      "la": 2112,
      "tur": 2113,
      "##ford": 2114,
      "the": 2115,
      "gen": 2116,
      "mis": 2117,
      "pal": 2118,
      "##field": 2119,
      "##ined": 2120,
      "##rad": 2121,
      "##ible": 2122,
      "ber": 2123,
      "div": 2124,
      "mod": 2125,
      "off": 2126,
      "sol": 2127,
      "##yp": 2128,
      "##bs": 2129,
      "##arn": 2130,
      "##ited": 2131,
      "##ake": 2132,
      "pat": 2133,
      "pet": 2134,
      "pers": 2135,
      "up": 2136,
      "##com": 2137,
      "##men": 2138,
      "##ject": 2139,
      "##ened": 2140,
      "##aster": 2141,
      "##rol": 2142,
      "##umm": 2143,
      "ann": 2144,
      "cro": 2145,
      "fr": 2146,
      "if": 2147,
      "mal": 2148,
      "mid": 2149,
      "rh": 2150,
      "##iff": 2151,
      "##yr": 2152,
      "##ying": 2153,
      "end": 2154,
      "ill": 2155,
      "12": 2156,
      "af": 2157,
      "mus": 2158,
      "oc": 2159,
      "tri": 2160,
      "ver": 2161,
      "val": 2162,
      "##ef": 2163,
      "##br": 2164,
      "##itch": 2165,
      "##omb": 2166,
      "##amb": 2167,
      "const": 2168,
      "art": 2169,
      "pres": 2170,
      "act": 2171,
      "elect": 2172,
      "ma": 2173,
      "sim": 2174,
      "tre": 2175,
      "##ep": 2176,
      "##ear": 2177,
      "##ya": 2178,
      "##ives": 2179,
      "conc": 2180,
      "prop": 2181,
      "bi": 2182,
      "cle": 2183,
      "hom": 2184,
      "mot": 2185,
      "ps": 2186,
      "us": 2187,
      "##aff": 2188,
      "##less": 2189,
      "##ges": 2190,
      "##ery": 2191,
      "##ica": 2192,
      "che": 2193,
      "eng": 2194,
      "aw": 2195,
      "aff": 2196,
      "dr": 2197,
      "hel": 2198,
      "rest": 2199,
      "sym": 2200,
      "##su": 2201,
      "##ven": 2202,
      "##iting": 2203,
      "##ution": 2204,
      "spec": 2205,
      "##ified": 2206,
      "##berg": 2207,
      "##press": 2208,
      "az": 2209,
      "can": 2210,
      "fran": 2211,
      "hol": 2212,
      "hand": 2213,
      "not": 2214,
      "ow": 2215,
      "part": 2216,
      "rad": 2217,
      "tw": 2218,
      "##ux": 2219,
      "##uck": 2220,
      "##wood": 2221,
      "##ester": 2222,
      "##ured": 2223,
      "##ots": 2224,
      "##ational": 2225,
      "enc": 2226,
      "##ower": 2227,
      "disp": 2228,
      "coun": 2229,
      "new": 2230,
      "##ship": 2231,
      "11": 2232,
      "ach": 2233,
      "bal": 2234,
      "blo": 2235,
      "dom": 2236,
      "ec": 2237,
      "fin": 2238,
      "fil": 2239,
      "mat": 2240,
      "##den": 2241,
      "##oy": 2242,
      "##oun": 2243,
      "##ke": 2244,
      "##onn": 2245,
      "##esh": 2246,
      "##ara": 2247,
      "##isc": 2248,
      "##itz": 2249,
      "##ively": 2250,
      "##emb": 2251,
      "##ards": 2252,
      "prot": 2253,
      "##ruct": 2254,
      "equ": 2255,
      "hum": 2256,
      "iv": 2257,
      "land": 2258,
      "mil": 2259,
      "port": 2260,
      "ra": 2261,
      "rom": 2262,
      "syn": 2263,
      "tro": 2264,
      "vol": 2265,
      "##ez": 2266,
      "##ex": 2267,
      "##ced": 2268,
      "##ou": 2269,
      "##ese": 2270,
      "##asc": 2271,
      "##unn": 2272,
      "##ries": 2273,
      "##ute": 2274,
      "##ads": 2275,
      "##ages": 2276,
      "##ouse": 2277,
      "adv": 2278,
      "cra": 2279,
      "cent": 2280,
      "es": 2281,
      "mcc": 2282,
      "sel": 2283,
      "vi": 2284,
      "##ved": 2285,
      "##0s": 2286,
      "##ators": 2287,
      "##reg": 2288,
      "##ids": 2289,
      "##ays": 2290,
      "prom": 2291,
      "imm": 2292,
      "##ology": 2293,
      "ath": 2294,
      "ros": 2295,
      "war": 2296,
      "wal": 2297,
      "##uff": 2298,
      "##ira": 2299,
      "##lin": 2300,
      "##gen": 2301,
      "##ame": 2302,
      "##erst": 2303,
      "##add": 2304,
      "##ime": 2305,
      "##ude": 2306,
      "adm": 2307,
      "aut": 2308,
      "bor": 2309,
      "ga": 2310,
      "kh": 2311,
      "ov": 2312,
      "pri": 2313,
      "wr": 2314,
      "##ht": 2315,
      "##ty": 2316,
      "##oph": 2317,
      "##ka": 2318,
      "##01": 2319,
      "##ino": 2320,
      "##ani": 2321,
      "##ena": 2322,
      "##ari": 2323,
      "##ison": 2324,
      "##ising": 2325,
      "##iter": 2326,
      "##urs": 2327,
      "##omm": 2328,
      "##ides": 2329,
      "##cks": 2330,
      "exc": 2331,
      "##ave": 2332,
      "##iew": 2333,
      "##ization": 2334,
      "leg": 2335,
      "ell": 2336,
      "##burg": 2337,
      "ay": 2338,
      "cir": 2339,
      "fer": 2340,
      "ha": 2341,
      "my": 2342,
      "##rist": 2343,
      "##lic": 2344,
      "##ering": 2345,
      "##use": 2346,
      "##eter": 2347,
      "##che": 2348,
      "##ama": 2349,
      "conv": 2350,
      "##ope": 2351,
      "##ished": 2352,
      "form": 2353,
      "coll": 2354,
      "ale": 2355,
      "cat": 2356,
      "ele": 2357,
      "gal": 2358,
      "hon": 2359,
      "lib": 2360,
      "mel": 2361,
      "pos": 2362,
      "sil": 2363,
      "wil": 2364,
      "##ns": 2365,
      "##ma": 2366,
      "##oon": 2367,
      "##fl": 2368,
      "##par": 2369,
      "##ination": 2370,
      "##ray": 2371,
      "##ump": 2372,
      "##istic": 2373,
      "##ops": 2374,
      "supp": 2375,
      "diss": 2376,
      "sec": 2377,
      "##ize": 2378,
      "bas": 2379,
      "hor": 2380,
      "ke": 2381,
      "pun": 2382,
      "sa": 2383,
      "sat": 2384,
      "##her": 2385,
      "##ues": 2386,
      "##la": 2387,
      "##ych": 2388,
      "##oe": 2389,
      "##ough": 2390,
      "##for": 2391,
      "##esc": 2392,
      "##arch": 2393,
      "##aries": 2394,
      "##ored": 2395,
      "##ily": 2396,
      "##omp": 2397,
      "##utt": 2398,
      "##ows": 2399,
      "arm": 2400,
      "expl": 2401,
      "##elling": 2402,
      "hyd": 2403,
      "##ski": 2404,
      "back": 2405,
      "down": 2406,
      "flo": 2407,
      "gar": 2408,
      "ib": 2409,
      "mah": 2410,
      "pen": 2411,
      "squ": 2412,
      "tor": 2413,
      "tem": 2414,
      "##ha": 2415,
      "##na": 2416,
      "##ney": 2417,
      "##to": 2418,
      "##ging": 2419,
      "##back": 2420,
      "##ker": 2421,
      "##po": 2422,
      "##ona": 2423,
      "##aly": 2424,
      "##ises": 2425,
      "##ural": 2426,
      "##etic": 2427,
      "##ette": 2428,
      "##tern": 2429,
      "prof": 2430,
      "##ains": 2431,
      "13": 2432,
      "cas": 2433,
      "fur": 2434,
      "ist": 2435,
      "mill": 2436,
      "oph": 2437,
      "occ": 2438,
      "ru": 2439,
      "ram": 2440,
      "rid": 2441,
      "tim": 2442,
      "##ral": 2443,
      "##iers": 2444,
      "##iqu": 2445,
      "##ta": 2446,
      "##oo": 2447,
      "##ville": 2448,
      "##ata": 2449,
      "##ington": 2450,
      "##ome": 2451,
      "##tered": 2452,
      "##ected": 2453,
      "pred": 2454,
      "##ances": 2455,
      "ban": 2456,
      "bul": 2457,
      "mic": 2458,
      "nar": 2459,
      "north": 2460,
      "ok": 2461,
      "ple": 2462,
      "pass": 2463,
      "sy": 2464,
      "sus": 2465,
      "ven": 2466,
      "##ress": 2467,
      "##hip": 2468,
      "##ds": 2469,
      "##li": 2470,
      "##por": 2471,
      "##ital": 2472,
      "##ional": 2473,
      "##ason": 2474,
      "##ili": 2475,
      "##ream": 2476,
      "##uted": 2477,
      "she": 2478,
      "prov": 2479,
      "##ency": 2480,
      "den": 2481,
      "eth": 2482,
      "esc": 2483,
      "hard": 2484,
      "iz": 2485,
      "kar": 2486,
      "lab": 2487,
      "mult": 2488,
      "sam": 2489,
      "sem": 2490,
      "sign": 2491,
      "vis": 2492,
      "west": 2493,
      "will": 2494,
      "##mer": 2495,
      "##line": 2496,
      "##go": 2497,
      "##ba": 2498,
      "##fer": 2499,
      "##we": 2500,
      "##ko": 2501,
      "##inal": 2502,
      "##ones": 2503,
      "##ano": 2504,
      "##ening": 2505,
      "##ita": 2506,
      "##ched": 2507,
      "##rac": 2508,
      "##ental": 2509,
      "##ently": 2510,
      "##unk": 2511,
      "stra": 2512,
      "cond": 2513,
      "##aker": 2514,
      "##apt": 2515,
      "##ends": 2516,
      "##ending": 2517,
      "ash": 2518,
      "rob": 2519,
      "organ": 2520,
      "##rupt": 2521,
      "resp": 2522,
      "south": 2523,
      "##head": 2524,
      "##bury": 2525,
      "ben": 2526,
      "der": 2527,
      "fa": 2528,
      "gh": 2529,
      "mur": 2530,
      "no": 2531,
      "ox": 2532,
      "opp": 2533,
      "pa": 2534,
      "ri": 2535,
      "wood": 2536,
      "##uz": 2537,
      "##med": 2538,
      "##yd": 2539,
      "##bor": 2540,
      "##ately": 2541,
      "##ites": 2542,
      "##chn": 2543,
      "real": 2544,
      "##osh": 2545,
      "##osaur": 2546,
      "##str": 2547,
      "arg": 2548,
      "##aps": 2549,
      "cour": 2550,
      "amb": 2551,
      "neg": 2552,
      "phil": 2553,
      "head": 2554,
      "##ences": 2555,
      "10": 2556,
      "ce": 2557,
      "du": 2558,
      "ear": 2559,
      "hal": 2560,
      "ko": 2561,
      "loc": 2562,
      "ren": 2563,
      "summ": 2564,
      "vo": 2565,
      "##house": 2566,
      "##ca": 2567,
      "##ci": 2568,
      "##ms": 2569,
      "##gg": 2570,
      "##vel": 2571,
      "##vent": 2572,
      "##arian": 2573,
      "##itions": 2574,
      "##ros": 2575,
      "inh": 2576,
      "##rew": 2577,
      "##rif": 2578,
      "##uts": 2579,
      "##ulf": 2580,
      "##ests": 2581,
      "##aking": 2582,
      "play": 2583,
      "black": 2584,
      "obs": 2585,
      "##ological": 2586,
      "##atory": 2587,
      "aud": 2588,
      "cam": 2589,
      "cop": 2590,
      "da": 2591,
      "fle": 2592,
      "fri": 2593,
      "gam": 2594,
      "mad": 2595,
      "pan": 2596,
      "rod": 2597,
      "soc": 2598,
      "tel": 2599,
      "vir": 2600,
      "##ior": 2601,
      "##off": 2602,
      "##ky": 2603,
      "##erc": 2604,
      "##ining": 2605,
      "##ony": 2606,
      "##onic": 2607,
      "##orts": 2608,
      "##itor": 2609,
      "##uring": 2610,
      "##leg": 2611,
      "##rod": 2612,
      "##rog": 2613,
      "##ola": 2614,
      "##ament": 2615,
      "reb": 2616,
      "stri": 2617,
      "##ste": 2618,
      "##ima": 2619,
      "uns": 2620,
      "unp": 2621,
      "##ably": 2622,
      "sho": 2623,
      "deb": 2624,
      "alb": 2625,
      "##ended": 2626,
      "##ugg": 2627,
      "cla": 2628,
      "class": 2629,
      "##icks": 2630,
      "mont": 2631,
      "barb": 2632,
      "##sky": 2633,
      "##right": 2634,
      "##duct": 2635,
      "##ification": 2636,
      "counter": 2637,
      "circ": 2638,
      "14": 2639,
      "ari": 2640,
      "bol": 2641,
      "bow": 2642,
      "dun": 2643,
      "far": 2644,
      "fac": 2645,
      "fire": 2646,
      "hall": 2647,
      "mass": 2648,
      "mart": 2649,
      "nat": 2650,
      "nom": 2651,
      "py": 2652,
      "post": 2653,
      "riv": 2654,
      "san": 2655,
      "##ring": 2656,
      "##ret": 2657,
      "##uct": 2658,
      "##ces": 2659,
      "##ox": 2660,
      "##ole": 2661,
      "##ool": 2662,
      "##over": 2663,
      "##form": 2664,
      "##ving": 2665,
      "##eds": 2666,
      "##eder": 2667,
      "##aring": 2668,
      "##ores": 2669,
      "##ches": 2670,
      "##ential": 2671,
      "##oms": 2672,
      "repl": 2673,
      "repr": 2674,
      "##ript": 2675,
      "##uld": 2676,
      "##uls": 2677,
      "##ote": 2678,
      "##ously": 2679,
      "compl": 2680,
      "##loy": 2681,
      "##ained": 2682,
      "emp": 2683,
      "ord": 2684,
      "##ike": 2685,
      "diff": 2686,
      "psych": 2687,
      "ah": 2688,
      "aer": 2689,
      "ara": 2690,
      "bh": 2691,
      "ball": 2692,
      "cast": 2693,
      "cart": 2694,
      "don": 2695,
      "dest": 2696,
      "fra": 2697,
      "fav": 2698,
      "gold": 2699,
      "hur": 2700,
      "jud": 2701,
      "mas": 2702,
      "math": 2703,
      "opt": 2704,
      "pel": 2705,
      "pra": 2706,
      "ty": 2707,
      "ts": 2708,
      "work": 2709,
      "ze": 2710,
      "##uv": 2711,
      "##cess": 2712,
      "##ball": 2713,
      "##of": 2714,
      "##ound": 2715,
      "##80": 2716,
      "##jo": 2717,
      "##xt": 2718,
      "##20": 2719,
      "##50": 2720,
      "##itic": 2721,
      "##ased": 2722,
      "inn": 2723,
      "ing": 2724,
      "##enth": 2725,
      "star": 2726,
      "##ided": 2727,
      "##ades": 2728,
      "##igr": 2729,
      "##aged": 2730,
      "conn": 2731,
      "##ires": 2732,
      "anth": 2733,
      "ens": 2734,
      "##ogn": 2735,
      "##vert": 2736,
      "##ify": 2737,
      "add": 2738,
      "##ection": 2739,
      "##oke": 2740,
      "##ourn": 2741,
      "##acter": 2742,
      "##rich": 2743,
      "##ission": 2744,
      "##gress": 2745,
      "##ridge": 2746,
      "bet": 2747,
      "bad": 2748,
      "cos": 2749,
      "clo": 2750,
      "camp": 2751,
      "gri": 2752,
      "haw": 2753,
      "ik": 2754,
      "ish": 2755,
      "je": 2756,
      "kir": 2757,
      "lu": 2758,
      "ly": 2759,
      "lif": 2760,
      "long": 2761,
      "mut": 2762,
      "nav": 2763,
      "nov": 2764,
      "ori": 2765,
      "oth": 2766,
      "oper": 2767,
      "pop": 2768,
      "pub": 2769,
      "prim": 2770,
      "rac": 2771,
      "sav": 2772,
      "tar": 2773,
      "ug": 2774,
      "win": 2775,
      "wid": 2776,
      "wall": 2777,
      "water": 2778,
      "##ren": 2779,
      "##ih": 2780,
      "##iro": 2781,
      "##iet": 2782,
      "##gar": 2783,
      "##ble": 2784,
      "##ze": 2785,
      "##za": 2786,
      "##fact": 2787,
      "##well": 2788,
      "##30": 2789,
      "##orph": 2790,
      "##ision": 2791,
      "##ister": 2792,
      "##itan": 2793,
      "##itting": 2794,
      "##rap": 2795,
      "##amm": 2796,
      "rein": 2797,
      "##erson": 2798,
      "##ulation": 2799,
      "christ": 2800,
      "##ired": 2801,
      "##ody": 2802,
      "##ested": 2803,
      "##ills": 2804,
      "##ender": 2805,
      "rock": 2806,
      "##ather": 2807,
      "abs": 2808,
      "##irect": 2809,
      "prem": 2810,
      "##eep": 2811,
      "infl": 2812,
      "ign": 2813,
      "magn": 2814,
      "gener": 2815,
      "auth": 2816,
      "by": 2817,
      "bat": 2818,
      "band": 2819,
      "bell": 2820,
      "bud": 2821,
      "batt": 2822,
      "cab": 2823,
      "dar": 2824,
      "dim": 2825,
      "ey": 2826,
      "eur": 2827,
      "ess": 2828,
      "fol": 2829,
      "fort": 2830,
      "hen": 2831,
      "high": 2832,
      "lim": 2833,
      "log": 2834,
      "lov": 2835,
      "law": 2836,
      "luc": 2837,
      "may": 2838,
      "non": 2839,
      "rot": 2840,
      "sar": 2841,
      "sle": 2842,
      "som": 2843,
      "sab": 2844,
      "tal": 2845,
      "term": 2846,
      "ve": 2847,
      "wa": 2848,
      "wor": 2849,
      "##ras": 2850,
      "##wr": 2851,
      "##worth": 2852,
      "##work": 2853,
      "##70": 2854,
      "##erg": 2855,
      "##ini": 2856,
      "##inate": 2857,
      "##ality": 2858,
      "##inger": 2859,
      "##ices": 2860,
      "##ication": 2861,
      "##round": 2862,
      "##usion": 2863,
      "##iles": 2864,
      "##une": 2865,
      "##rian": 2866,
      "##osed": 2867,
      "##acy": 2868,
      "##ements": 2869,
      "##agon": 2870,
      "##iment": 2871,
      "unf": 2872,
      "##ability": 2873,
      "##owed": 2874,
      "##akes": 2875,
      "##vern": 2876,
      "##elled": 2877,
      "##orted": 2878,
      "##eys": 2879,
      "##ights": 2880,
      "beh": 2881,
      "quar": 2882,
      "phot": 2883,
      "mark": 2884,
      "##shire": 2885,
      "##rown": 2886,
      "grand": 2887,
      "foot": 2888,
      "joh": 2889,
      "hydro": 2890,
      "cru": 2891,
      "dam": 2892,
      "eff": 2893,
      "fair": 2894,
      "gall": 2895,
      "glo": 2896,
      "good": 2897,
      "hem": 2898,
      "ide": 2899,
      "kil": 2900,
      "lin": 2901,
      "lar": 2902,
      "men": 2903,
      "mos": 2904,
      "na": 2905,
      "ost": 2906,
      "pot": 2907,
      "rich": 2908,
      "sens": 2909,
      "ta": 2910,
      "van": 2911,
      "wat": 2912,
      "with": 2913,
      "##uous": 2914,
      "##cy": 2915,
      "##cer": 2916,
      "##da": 2917,
      "##dy": 2918,
      "##do": 2919,
      "##mo": 2920,
      "##ien": 2921,
      "##gu": 2922,
      "##gs": 2923,
      "##60": 2924,
      "##25": 2925,
      "##ints": 2926,
      "##icip": 2927,
      "##itation": 2928,
      "##eless": 2929,
      "##rov": 2930,
      "##used": 2931,
      "##cher": 2932,
      "##rem": 2933,
      "##rey": 2934,
      "##ersh": 2935,
      "##rie": 2936,
      "##ulated": 2937,
      "stand": 2938,
      "##ider": 2939,
      "##ading": 2940,
      "##ivity": 2941,
      "##abil": 2942,
      "##ode": 2943,
      "##owing": 2944,
      "sup": 2945,
      "spe": 2946,
      "spect": 2947,
      "ther": 2948,
      "##ips": 2949,
      "##aint": 2950,
      "##aining": 2951,
      "##mann": 2952,
      "subs": 2953,
      "contin": 2954,
      "##ught": 2955,
      "ult": 2956,
      "desc": 2957,
      "invest": 2958,
      "##ribut": 2959,
      "green": 2960,
      "capt": 2961,
      "##ography": 2962,
      "##osaurus": 2963,
      "20": 2964,
      "bir": 2965,
      "bay": 2966,
      "cin": 2967,
      "dor": 2968,
      "dur": 2969,
      "ever": 2970,
      "fal": 2971,
      "fam": 2972,
      "fun": 2973,
      "ger": 2974,
      "hos": 2975,
      "jur": 2976,
      "lor": 2977,
      "mun": 2978,
      "mem": 2979,
      "mess": 2980,
      "nor": 2981,
      "pu": 2982,
      "sed": 2983,
      "sac": 2984,
      "sand": 2985,
      "slo": 2986,
      "tax": 2987,
      "uk": 2988,
      "va": 2989,
      "vel": 2990,
      "vill": 2991,
      "##ek": 2992,
      "##ually": 2993,
      "##nes": 2994,
      "##mar": 2995,
      "##ii": 2996,
      "##iat": 2997,
      "##iel": 2998,
      "##ls": 2999,
      "##lan": 3000,
      "##greg": 3001,
      "##85": 3002,
      "##vin": 3003,
      "##kins": 3004,
      "##inated": 3005,
      "##isation": 3006,
      "##ito": 3007,
      "##ases": 3008,
      "##uses": 3009,
      "##ils": 3010,
      "##chan": 3011,
      "insp": 3012,
      "requ": 3013,
      "##ula": 3014,
      "##osph": 3015,
      "stat": 3016,
      "##idd": 3017,
      "##aded": 3018,
      "##ival": 3019,
      "##ager": 3020,
      "unc": 3021,
      "env": 3022,
      "##pping": 3023,
      "##cking": 3024,
      "pros": 3025,
      "exper": 3026,
      "##ape": 3027,
      "##ella": 3028,
      "dism": 3029,
      "##ief": 3030,
      "comb": 3031,
      "count": 3032,
      "##iber": 3033,
      "##pton": 3034,
      "##izing": 3035,
      "##ects": 3036,
      "impl": 3037,
      "asc": 3038,
      "##ishing": 3039,
      "##ours": 3040,
      "##ially": 3041,
      "##bert": 3042,
      "recon": 3043,
      "corn": 3044,
      "##cover": 3045,
      "acqu": 3046,
      "hyp": 3047,
      "##ways": 3048,
      "##wards": 3049,
      "##stein": 3050,
      "bon": 3051,
      "bri": 3052,
      "but": 3053,
      "bab": 3054,
      "bang": 3055,
      "bene": 3056,
      "cer": 3057,
      "cul": 3058,
      "dri": 3059,
      "dig": 3060,
      "direct": 3061,
      "fact": 3062,
      "gun": 3063,
      "gir": 3064,
      "hes": 3065,
      "kat": 3066,
      "mol": 3067,
      "mist": 3068,
      "mach": 3069,
      "mich": 3070,
      "max": 3071,
      "overs": 3072,
      "pack": 3073,
      "path": 3074,
      "rain": 3075,
      "sing": 3076,
      "var": 3077,
      "##ea": 3078,
      "##rh": 3079,
      "##ij": 3080,
      "##iam": 3081,
      "##92": 3082,
      "##90": 3083,
      "##fe": 3084,
      "##wh": 3085,
      "##war": 3086,
      "##water": 3087,
      "##39": 3088,
      "##35": 3089,
      "##27": 3090,
      "##21": 3091,
      "##53": 3092,
      "##iner": 3093,
      "##any": 3094,
      "##ared": 3095,
      "##aling": 3096,
      "##oring": 3097,
      "##isp": 3098,
      "##ico": 3099,
      "##icated": 3100,
      "##urn": 3101,
      "##urb": 3102,
      "##lex": 3103,
      "##lement": 3104,
      "##iled": 3105,
      "##rect": 3106,
      "##ented": 3107,
      "stre": 3108,
      "##iding": 3109,
      "##ader": 3110,
      "##ivers": 3111,
      "##agn": 3112,
      "##irm": 3113,
      "##imb": 3114,
      "##abor": 3115,
      "##ander": 3116,
      "##ession": 3117,
      "short": 3118,
      "##cked": 3119,
      "suff": 3120,
      "##ibility": 3121,
      "##rang": 3122,
      "##ense": 3123,
      "##under": 3124,
      "neur": 3125,
      "orn": 3126,
      "pret": 3127,
      "princ": 3128,
      "##ecut": 3129,
      "##ront": 3130,
      "subst": 3131,
      "prec": 3132,
      "obl": 3133,
      "techn": 3134,
      "commun": 3135,
      "##cont": 3136,
      "revol": 3137,
      "symb": 3138,
      "susp": 3139,
      "21": 3140,
      "aust": 3141,
      "ba": 3142,
      "bus": 3143,
      "bill": 3144,
      "bott": 3145,
      "bomb": 3146,
      "cad": 3147,
      "card": 3148,
      "ect": 3149,
      "fu": 3150,
      "hun": 3151,
      "hous": 3152,
      "hind": 3153,
      "hipp": 3154,
      "ip": 3155,
      "just": 3156,
      "kr": 3157,
      "lat": 3158,
      "lie": 3159,
      "mes": 3160,
      "mand": 3161,
      "mob": 3162,
      "miss": 3163,
      "oct": 3164,
      "pay": 3165,
      "poll": 3166,
      "pract": 3167,
      "ran": 3168,
      "rib": 3169,
      "serv": 3170,
      "tom": 3171,
      "ub": 3172,
      "vers": 3173,
      "vac": 3174,
      "ye": 3175,
      "yo": 3176,
      "zh": 3177,
      "##ean": 3178,
      "##rel": 3179,
      "##ration": 3180,
      "##hl": 3181,
      "##hib": 3182,
      "##ua": 3183,
      "##cast": 3184,
      "##di": 3185,
      "##don": 3186,
      "##day": 3187,
      "##down": 3188,
      "##mon": 3189,
      "##ias": 3190,
      "##yg": 3191,
      "##yth": 3192,
      "##tic": 3193,
      "##ga": 3194,
      "##get": 3195,
      "##95": 3196,
      "##86": 3197,
      "##81": 3198,
      "##65": 3199,
      "##wick": 3200,
      "##van": 3201,
      "##ken": 3202,
      "##king": 3203,
      "##77": 3204,
      "##71": 3205,
      "##75": 3206,
      "##22": 3207,
      "##09": 3208,
      "##07": 3209,
      "##40": 3210,
      "##45": 3211,
      "##54": 3212,
      "##eric": 3213,
      "##inct": 3214,
      "##inter": 3215,
      "##eding": 3216,
      "##ato": 3217,
      "##ici": 3218,
      "##itted": 3219,
      "##ura": 3220,
      "##roph": 3221,
      "##char": 3222,
      "incl": 3223,
      "##omy": 3224,
      "##amed": 3225,
      "##ulate": 3226,
      "##oto": 3227,
      "##otic": 3228,
      "##ident": 3229,
      "##eman": 3230,
      "##emat": 3231,
      "##aging": 3232,
      "##ods": 3233,
      "##pped": 3234,
      "decl": 3235,
      "alt": 3236,
      "##ipl": 3237,
      "##izes": 3238,
      "##ective": 3239,
      "lev": 3240,
      "asp": 3241,
      "##oks": 3242,
      "##oked": 3243,
      "plan": 3244,
      "flu": 3245,
      "intern": 3246,
      "whe": 3247,
      "##ologist": 3248,
      "appro": 3249,
      "##board": 3250,
      "surv": 3251,
      "##resp": 3252,
      "merc": 3253,
      "##ength": 3254,
      "constit": 3255,
      "priv": 3256,
      "200": 3257,
      "31": 3258,
      "41": 3259,
      "aqu": 3260,
      "aug": 3261,
      "bull": 3262,
      "cand": 3263,
      "cult": 3264,
      "dal": 3265,
      "econ": 3266,
      "fat": 3267,
      "fel": 3268,
      "fund": 3269,
      "gi": 3270,
      "hist": 3271,
      "ich": 3272,
      "jack": 3273,
      "ka": 3274,
      "kin": 3275,
      "key": 3276,
      "lam": 3277,
      "liv": 3278,
      "lik": 3279,
      "mck": 3280,
      "nic": 3281,
      "nag": 3282,
      "oz": 3283,
      "ped": 3284,
      "por": 3285,
      "pap": 3286,
      "past": 3287,
      "poss": 3288,
      "rat": 3289,
      "run": 3290,
      "rig": 3291,
      "rav": 3292,
      "rub": 3293,
      "sin": 3294,
      "sent": 3295,
      "ten": 3296,
      "ush": 3297,
      "wol": 3298,
      "wind": 3299,
      "##han": 3300,
      "##ule": 3301,
      "##nd": 3302,
      "##aph": 3303,
      "##cs": 3304,
      "##met": 3305,
      "##iation": 3306,
      "##iate": 3307,
      "##ique": 3308,
      "##ld": 3309,
      "##lor": 3310,
      "##lish": 3311,
      "##yst": 3312,
      "##sen": 3313,
      "##gy": 3314,
      "##gin": 3315,
      "##bre": 3316,
      "##96": 3317,
      "##94": 3318,
      "##89": 3319,
      "##63": 3320,
      "##67": 3321,
      "##62": 3322,
      "##61": 3323,
      "##kin": 3324,
      "##pe": 3325,
      "##ped": 3326,
      "##port": 3327,
      "##38": 3328,
      "##33": 3329,
      "##37": 3330,
      "##78": 3331,
      "##76": 3332,
      "##29": 3333,
      "##26": 3334,
      "##24": 3335,
      "##03": 3336,
      "##04": 3337,
      "##05": 3338,
      "##48": 3339,
      "##43": 3340,
      "##42": 3341,
      "##41": 3342,
      "##44": 3343,
      "##56": 3344,
      "##55": 3345,
      "##era": 3346,
      "##ero": 3347,
      "##anth": 3348,
      "##ala": 3349,
      "##aled": 3350,
      "##alth": 3351,
      "##organ": 3352,
      "##isl": 3353,
      "##iser": 3354,
      "##itter": 3355,
      "##itive": 3356,
      "##asm": 3357,
      "inte": 3358,
      "##ree": 3359,
      "##ention": 3360,
      "##una": 3361,
      "##ria": 3362,
      "##ried": 3363,
      "stock": 3364,
      "##ada": 3365,
      "##tering": 3366,
      "##iring": 3367,
      "##ston": 3368,
      "anal": 3369,
      "anim": 3370,
      "##anda": 3371,
      "##essed": 3372,
      "enl": 3373,
      "enth": 3374,
      "show": 3375,
      "##ogen": 3376,
      "arb": 3377,
      "##aks": 3378,
      "succ": 3379,
      "thr": 3380,
      "thor": 3381,
      "##ells": 3382,
      "##eller": 3383,
      "disapp": 3384,
      "##illa": 3385,
      "##ift": 3386,
      "adj": 3387,
      "##lock": 3388,
      "scr": 3389,
      "scre": 3390,
      "##ocr": 3391,
      "qual": 3392,
      "phys": 3393,
      "boy": 3394,
      "prev": 3395,
      "##eek": 3396,
      "trad": 3397,
      "whit": 3398,
      "##anna": 3399,
      "compet": 3400,
      "##yll": 3401,
      "##rows": 3402,
      "##ailed": 3403,
      "##iction": 3404,
      "burg": 3405,
      "##other": 3406,
      "terr": 3407,
      "cycl": 3408,
      "turn": 3409,
      "motor": 3410,
      "viol": 3411,
      "occup": 3412,
      "201": 3413,
      "51": 3414,
      "61": 3415,
      "81": 3416,
      "ax": 3417,
      "ack": 3418,
      "bos": 3419,
      "bak": 3420,
      "bru": 3421,
      "bah": 3422,
      "cut": 3423,
      "cav": 3424,
      "call": 3425,
      "cust": 3426,
      "cann": 3427,
      "ech": 3428,
      "fig": 3429,
      "fem": 3430,
      "gor": 3431,
      "gil": 3432,
      "gard": 3433,
      "gill": 3434,
      "gang": 3435,
      "gram": 3436,
      "hus": 3437,
      "hot": 3438,
      "hab": 3439,
      "how": 3440,
      "hors": 3441,
      "hart": 3442,
      "ju": 3443,
      "jer": 3444,
      "jan": 3445,
      "jul": 3446,
      "jac": 3447,
      "kon": 3448,
      "kra": 3449,
      "list": 3450,
      "lay": 3451,
      "lind": 3452,
      "mort": 3453,
      "maj": 3454,
      "nu": 3455,
      "nam": 3456,
      "num": 3457,
      "night": 3458,
      "oly": 3459,
      "osc": 3460,
      "orig": 3461,
      "pin": 3462,
      "pac": 3463,
      "penn": 3464,
      "row": 3465,
      "rang": 3466,
      "roll": 3467,
      "raj": 3468,
      "sor": 3469,
      "tot": 3470,
      "test": 3471,
      "typ": 3472,
      "voc": 3473,
      "wel": 3474,
      "##eb": 3475,
      "##har": 3476,
      "##uel": 3477,
      "##me": 3478,
      "##ming": 3479,
      "##ios": 3480,
      "##iph": 3481,
      "##iated": 3482,
      "##lers": 3483,
      "##ten": 3484,
      "##gra": 3485,
      "##ban": 3486,
      "##99": 3487,
      "##87": 3488,
      "##82": 3489,
      "##84": 3490,
      "##69": 3491,
      "##66": 3492,
      "##wor": 3493,
      "##pts": 3494,
      "##36": 3495,
      "##32": 3496,
      "##34": 3497,
      "##79": 3498,
      "##72": 3499,
      "##74": 3500,
      "##06": 3501,
      "##02": 3502,
      "##46": 3503,
      "##47": 3504,
      "##58": 3505,
      "##57": 3506,
      "##52": 3507,
      "##oned": 3508,
      "##eness": 3509,
      "##arily": 3510,
      "##alist": 3511,
      "##oral": 3512,
      "##ories": 3513,
      "##itude": 3514,
      "##elop": 3515,
      "init": 3516,
      "##oman": 3517,
      "##omet": 3518,
      "react": 3519,
      "##osis": 3520,
      "stal": 3521,
      "stud": 3522,
      "##otyp": 3523,
      "##ado": 3524,
      "##ems": 3525,
      "cho": 3526,
      "##agu": 3527,
      "##stone": 3528,
      "##ims": 3529,
      "##ands": 3530,
      "##esses": 3531,
      "enter": 3532,
      "##phal": 3533,
      "shar": 3534,
      "shel": 3535,
      "ship": 3536,
      "alg": 3537,
      "excl": 3538,
      "##iev": 3539,
      "##uded": 3540,
      "sex": 3541,
      "##astic": 3542,
      "clar": 3543,
      "##play": 3544,
      "scar": 3545,
      "emph": 3546,
      "orch": 3547,
      "heart": 3548,
      "subt": 3549,
      "collect": 3550,
      "iss": 3551,
      "recogn": 3552,
      "191": 3553,
      "inters": 3554,
      "##ancy": 3555,
      "sound": 3556,
      "design": 3557,
      "break": 3558,
      "broad": 3559,
      "##fully": 3560,
      "##ipped": 3561,
      "govern": 3562,
      "character": 3563,
      "special": 3564,
      "alex": 3565,
      "author": 3566,
      "71": 3567,
      "aur": 3568,
      "aus": 3569,
      "bed": 3570,
      "bod": 3571,
      "bran": 3572,
      "bath": 3573,
      "brid": 3574,
      "cel": 3575,
      "cod": 3576,
      "canc": 3577,
      "cele": 3578,
      "dog": 3579,
      "dav": 3580,
      "dyn": 3581,
      "fab": 3582,
      "fred": 3583,
      "feder": 3584,
      "gru": 3585,
      "hin": 3586,
      "hay": 3587,
      "hib": 3588,
      "happ": 3589,
      "ie": 3590,
      "ick": 3591,
      "ku": 3592,
      "kam": 3593,
      "kid": 3594,
      "les": 3595,
      "lit": 3596,
      "let": 3597,
      "lem": 3598,
      "low": 3599,
      "line": 3600,
      "lob": 3601,
      "lyn": 3602,
      "mi": 3603,
      "mir": 3604,
      "mack": 3605,
      "mov": 3606,
      "mans": 3607,
      "nick": 3608,
      "pit": 3609,
      "pul": 3610,
      "pav": 3611,
      "rap": 3612,
      "rud": 3613,
      "sen": 3614,
      "set": 3615,
      "sig": 3616,
      "tab": 3617,
      "top": 3618,
      "trib": 3619,
      "uc": 3620,
      "ud": 3621,
      "vent": 3622,
      "vig": 3623,
      "yl": 3624,
      "##een": 3625,
      "##ris": 3626,
      "##rent": 3627,
      "##cel": 3628,
      "##iac": 3629,
      "##ye": 3630,
      "##yt": 3631,
      "##yle": 3632,
      "##ster": 3633,
      "##ti": 3634,
      "##tt": 3635,
      "##bal": 3636,
      "##oz": 3637,
      "##oid": 3638,
      "##zy": 3639,
      "##fort": 3640,
      "##88": 3641,
      "##83": 3642,
      "##64": 3643,
      "##ja": 3644,
      "##ji": 3645,
      "##win": 3646,
      "##ked": 3647,
      "##pass": 3648,
      "##path": 3649,
      "##28": 3650,
      "##49": 3651,
      "##51": 3652,
      "##onia": 3653,
      "##onder": 3654,
      "##anes": 3655,
      "##eded": 3656,
      "##ature": 3657,
      "##ales": 3658,
      "##ingu": 3659,
      "##eling": 3660,
      "##asing": 3661,
      "##lem": 3662,
      "##rob": 3663,
      "##ilt": 3664,
      "##ols": 3665,
      "##ching": 3666,
      "inqu": 3667,
      "read": 3668,
      "##utes": 3669,
      "##oses": 3670,
      "##osing": 3671,
      "##osition": 3672,
      "##igg": 3673,
      "##ived": 3674,
      "##empt": 3675,
      "chron": 3676,
      "##agan": 3677,
      "consc": 3678,
      "anc": 3679,
      "ans": 3680,
      "unn": 3681,
      "##ther": 3682,
      "##anding": 3683,
      "##estion": 3684,
      "##pper": 3685,
      "express": 3686,
      "##oper": 3687,
      "spr": 3688,
      "##ello": 3689,
      "##ateg": 3690,
      "##illed": 3691,
      "##illing": 3692,
      "##ifying": 3693,
      "##udes": 3694,
      "neigh": 3695,
      "roy": 3696,
      "bea": 3697,
      "##oking": 3698,
      "plat": 3699,
      "##cles": 3700,
      "##awa": 3701,
      "##aches": 3702,
      "##ords": 3703,
      "##rong": 3704,
      "colon": 3705,
      "perp": 3706,
      "pref": 3707,
      "brit": 3708,
      "181": 3709,
      "171": 3710,
      "161": 3711,
      "appre": 3712,
      "##yster": 3713,
      "meg": 3714,
      "##ashed": 3715,
      "##orms": 3716,
      "lock": 3717,
      "cred": 3718,
      "critic": 3719,
      "##ails": 3720,
      "##enced": 3721,
      "transp": 3722,
      "##heim": 3723,
      "##iously": 3724,
      "##itten": 3725,
      "conserv": 3726,
      "ident": 3727,
      "doub": 3728,
      "calc": 3729,
      "util": 3730,
      "##ether": 3731,
      "transl": 3732,
      "buck": 3733,
      "##ception": 3734,
      "ograph": 3735,
      "cross": 3736,
      "activ": 3737,
      "admin": 3738,
      "liber": 3739,
      "circum": 3740,
      "91": 3741,
      "bot": 3742,
      "bour": 3743,
      "bank": 3744,
      "cow": 3745,
      "cant": 3746,
      "cath": 3747,
      "cry": 3748,
      "cert": 3749,
      "ded": 3750,
      "dub": 3751,
      "eb": 3752,
      "east": 3753,
      "fut": 3754,
      "fly": 3755,
      "fish": 3756,
      "fres": 3757,
      "gas": 3758,
      "god": 3759,
      "gran": 3760,
      "hil": 3761,
      "hav": 3762,
      "hang": 3763,
      "jam": 3764,
      "jun": 3765,
      "ker": 3766,
      "kur": 3767,
      "less": 3768,
      "lang": 3769,
      "mu": 3770,
      "mang": 3771,
      "mind": 3772,
      "master": 3773,
      "net": 3774,
      "nik": 3775,
      "pil": 3776,
      "pick": 3777,
      "ric": 3778,
      "rab": 3779,
      "rend": 3780,
      "rene": 3781,
      "raf": 3782,
      "sid": 3783,
      "sak": 3784,
      "ton": 3785,
      "tam": 3786,
      "tun": 3787,
      "tak": 3788,
      "tub": 3789,
      "tru": 3790,
      "town": 3791,
      "tele": 3792,
      "ved": 3793,
      "vic": 3794,
      "vict": 3795,
      "vari": 3796,
      "view": 3797,
      "wo": 3798,
      "wav": 3799,
      "wors": 3800,
      "##equ": 3801,
      "##rus": 3802,
      "##rum": 3803,
      "##rest": 3804,
      "##rated": 3805,
      "##hr": 3806,
      "##hood": 3807,
      "##ued": 3808,
      "##nam": 3809,
      "##aim": 3810,
      "##ding": 3811,
      "##mark": 3812,
      "##iest": 3813,
      "##ience": 3814,
      "##bc": 3815,
      "##bour": 3816,
      "##zen": 3817,
      "##98": 3818,
      "##97": 3819,
      "##91": 3820,
      "##fall": 3821,
      "##fish": 3822,
      "##68": 3823,
      "##wer": 3824,
      "##wich": 3825,
      "##va": 3826,
      "##ki": 3827,
      "##kes": 3828,
      "##pa": 3829,
      "##31": 3830,
      "##73": 3831,
      "##23": 3832,
      "##08": 3833,
      "##59": 3834,
      "##inating": 3835,
      "##onym": 3836,
      "##esis": 3837,
      "##ali": 3838,
      "##alized": 3839,
      "##icate": 3840,
      "##icient": 3841,
      "##itar": 3842,
      "##itated": 3843,
      "##itors": 3844,
      "##eland": 3845,
      "##asts": 3846,
      "##leton": 3847,
      "##roy": 3848,
      "##usc": 3849,
      "##iling": 3850,
      "##oler": 3851,
      "##oles": 3852,
      "##omin": 3853,
      "rever": 3854,
      "##uns": 3855,
      "##ulating": 3856,
      "styl": 3857,
      "staff": 3858,
      "##otes": 3859,
      "##oted": 3860,
      "##oting": 3861,
      "##aced": 3862,
      "##igs": 3863,
      "##iger": 3864,
      "##ume": 3865,
      "cha": 3866,
      "cham": 3867,
      "chem": 3868,
      "chang": 3869,
      "conce": 3870,
      "##irs": 3871,
      "##imm": 3872,
      "##imate": 3873,
      "##isted": 3874,
      "##odes": 3875,
      "enh": 3876,
      "shr": 3877,
      "sher": 3878,
      "##anted": 3879,
      "alle": 3880,
      "arist": 3881,
      "prod": 3882,
      "prog": 3883,
      "project": 3884,
      "exam": 3885,
      "thir": 3886,
      "##elli": 3887,
      "##ipe": 3888,
      "##ife": 3889,
      "##ecting": 3890,
      "imag": 3891,
      "amph": 3892,
      "##ension": 3893,
      "##ensive": 3894,
      "##unds": 3895,
      "press": 3896,
      "abd": 3897,
      "##usted": 3898,
      "##ovic": 3899,
      "carn": 3900,
      "interv": 3901,
      "brand": 3902,
      "##inson": 3903,
      "contem": 3904,
      "##ucle": 3905,
      "school": 3906,
      "##azz": 3907,
      "##ologists": 3908,
      "ern": 3909,
      "olog": 3910,
      "overt": 3911,
      "##igned": 3912,
      "swe": 3913,
      "text": 3914,
      "acad": 3915,
      "inform": 3916,
      "##encies": 3917,
      "transc": 3918,
      "gren": 3919,
      "grass": 3920,
      "##lands": 3921,
      "brad": 3922,
      "##apped": 3923,
      "##apping": 3924,
      "desp": 3925,
      "refer": 3926,
      "burn": 3927,
      "##verse": 3928,
      "doct": 3929,
      "##ropri": 3930,
      "found": 3931,
      "underst": 3932,
      "purp": 3933,
      "snow": 3934,
      "angel": 3935,
      "modern": 3936,
      "##roll": 3937,
      "midd": 3938,
      "synth": 3939,
      "secret": 3940,
      "earth": 3941,
      "observ": 3942,
      "repres": 3943,
      "differ": 3944,
      "investig": 3945,
      "symbol": 3946,
      "econom": 3947,
      "emphas": 3948,
      "celebr": 3949,
      "bj": 3950,
      "bes": 3951,
      "bog": 3952,
      "bern": 3953,
      "brig": 3954,
      "cit": 3955,
      "civ": 3956,
      "cub": 3957,
      "crim": 3958,
      "dw": 3959,
      "dan": 3960,
      "dol": 3961,
      "doc": 3962,
      "dys": 3963,
      "donn": 3964,
      "dream": 3965,
      "eu": 3966,
      "eman": 3967,
      "ecc": 3968,
      "esp": 3969,
      "ful": 3970,
      "fir": 3971,
      "fant": 3972,
      "fall": 3973,
      "fram": 3974,
      "foll": 3975,
      "farm": 3976,
      "gib": 3977,
      "hu": 3978,
      "hed": 3979,
      "hag": 3980,
      "hop": 3981,
      "hob": 3982,
      "haz": 3983,
      "herm": 3984,
      "hair": 3985,
      "hold": 3986,
      "holl": 3987,
      "ith": 3988,
      "iron": 3989,
      "ken": 3990,
      "kel": 3991,
      "kaz": 3992,
      "led": 3993,
      "lav": 3994,
      "mant": 3995,
      "mend": 3996,
      "main": 3997,
      "mik": 3998,
      "mann": 3999,
      "mater": 4000,
      "mix": 4001,
      "masc": 4002,
      "migr": 4003,
      "nin": 4004,
      "nas": 4005,
      "nut": 4006,
      "nad": 4007,
      "nap": 4008,
      "nob": 4009,
      "narr": 4010,
      "national": 4011,
      "och": 4012,
      "pp": 4013,
      "pain": 4014,
      "pale": 4015,
      "ry": 4016,
      "ris": 4017,
      "rum": 4018,
      "ray": 4019,
      "rog": 4020,
      "rop": 4021,
      "sum": 4022,
      "sph": 4023,
      "sett": 4024,
      "sax": 4025,
      "tas": 4026,
      "tir": 4027,
      "tap": 4028,
      "tok": 4029,
      "tob": 4030,
      "uss": 4031,
      "viv": 4032,
      "vide": 4033,
      "watch": 4034,
      "wild": 4035,
      "ys": 4036,
      "##ees": 4037,
      "##rd": 4038,
      "##rick": 4039,
      "##hm": 4040,
      "##hold": 4041,
      "##uan": 4042,
      "##uation": 4043,
      "##aine": 4044,
      "##dale": 4045,
      "##mp": 4046,
      "##mond": 4047,
      "##iar": 4048,
      "##lu": 4049,
      "##ycl": 4050,
      "##gers": 4051,
      "##bon": 4052,
      "##bar": 4053,
      "##bing": 4054,
      "##bridge": 4055,
      "##oin": 4056,
      "##och": 4057,
      "##ount": 4058,
      "##zz": 4059,
      "##93": 4060,
      "##6th": 4061,
      "##wa": 4062,
      "##wall": 4063,
      "##2nd": 4064,
      "##0th": 4065,
      "##4th": 4066,
      "##5th": 4067,
      "##iness": 4068,
      "##inary": 4069,
      "##oner": 4070,
      "##esp": 4071,
      "##enz": 4072,
      "##ener": 4073,
      "##ati": 4074,
      "##atri": 4075,
      "##atives": 4076,
      "##oria": 4077,
      "##icles": 4078,
      "##itable": 4079,
      "##eler": 4080,
      "##eled": 4081,
      "##elle": 4082,
      "##eline": 4083,
      "##urg": 4084,
      "##asp": 4085,
      "##lets": 4086,
      "##rous": 4087,
      "##eton": 4088,
      "##eted": 4089,
      "##olis": 4090,
      "##chi": 4091,
      "##chang": 4092,
      "##rav": 4093,
      "##raft": 4094,
      "inj": 4095,
      "##oma": 4096,
      "rece": 4097,
      "##ership": 4098,
      "##rial": 4099,
      "##ules": 4100,
      "##osa": 4101,
      "stan": 4102,
      "stor": 4103,
      "stro": 4104,
      "##ota": 4105,
      "##ida": 4106,
      "##iver": 4107,
      "##emen": 4108,
      "##ember": 4109,
      "chal": 4110,
      "champ": 4111,
      "child": 4112,
      "chrom": 4113,
      "##agger": 4114,
      "conver": 4115,
      "conqu": 4116,
      "concl": 4117,
      "consp": 4118,
      "analy": 4119,
      "unt": 4120,
      "unre": 4121,
      "##istr": 4122,
      "##ables": 4123,
      "##esting": 4124,
      "##cker": 4125,
      "##antly": 4126,
      "altern": 4127,
      "##iance": 4128,
      "##aken": 4129,
      "##akers": 4130,
      "sud": 4131,
      "spl": 4132,
      "spir": 4133,
      "thro": 4134,
      "thre": 4135,
      "##ieg": 4136,
      "adh": 4137,
      "##ugu": 4138,
      "sever": 4139,
      "sequ": 4140,
      "##izz": 4141,
      "##ector": 4142,
      "##asting": 4143,
      "##orting": 4144,
      "##ortion": 4145,
      "atl": 4146,
      "clin": 4147,
      "scor": 4148,
      "scul": 4149,
      "emer": 4150,
      "road": 4151,
      "##ighting": 4152,
      "##ubl": 4153,
      "##mental": 4154,
      "plant": 4155,
      "##athy": 4156,
      "abb": 4157,
      "##ials": 4158,
      "heav": 4159,
      "##away": 4160,
      "box": 4161,
      "##acher": 4162,
      "##aching": 4163,
      "forg": 4164,
      "resid": 4165,
      "interpr": 4166,
      "perm": 4167,
      "##anced": 4168,
      "indust": 4169,
      "soph": 4170,
      "meas": 4171,
      "mechan": 4172,
      "ital": 4173,
      "##etta": 4174,
      "mount": 4175,
      "incor": 4176,
      "manu": 4177,
      "##rams": 4178,
      "harv": 4179,
      "##book": 4180,
      "command": 4181,
      "educ": 4182,
      "sky": 4183,
      "graph": 4184,
      "minim": 4185,
      "mete": 4186,
      "meth": 4187,
      "##000": 4188,
      "salv": 4189,
      "goal": 4190,
      "geor": 4191,
      "archae": 4192,
      "demon": 4193,
      "charl": 4194,
      "##outs": 4195,
      "instit": 4196,
      "draw": 4197,
      "theor": 4198,
      "divers": 4199,
      "person": 4200,
      "illust": 4201,
      "franc": 4202,
      "blood": 4203,
      "domin": 4204,
      "micro": 4205,
      "virt": 4206,
      "kirk": 4207,
      "public": 4208,
      "behav": 4209,
      "hosp": 4210,
      "benef": 4211,
      "integr": 4212,
      "101": 4213,
      "au": 4214,
      "are": 4215,
      "aph": 4216,
      "ace": 4217,
      "aver": 4218,
      "ble": 4219,
      "bag": 4220,
      "bast": 4221,
      "bron": 4222,
      "beth": 4223,
      "bapt": 4224,
      "cu": 4225,
      "cum": 4226,
      "cell": 4227,
      "cens": 4228,
      "cass": 4229,
      "cort": 4230,
      "crow": 4231,
      "cost": 4232,
      "catch": 4233,
      "dh": 4234,
      "dj": 4235,
      "day": 4236,
      "dram": 4237,
      "dict": 4238,
      "dark": 4239,
      "dipl": 4240,
      "eg": 4241,
      "foc": 4242,
      "fert": 4243,
      "fix": 4244,
      "front": 4245,
      "gan": 4246,
      "gast": 4247,
      "gene": 4248,
      "garr": 4249,
      "hat": 4250,
      "hey": 4251,
      "hack": 4252,
      "hier": 4253,
      "host": 4254,
      "hatch": 4255,
      "horn": 4256,
      "ion": 4257,
      "iff": 4258,
      "kl": 4259,
      "kal": 4260,
      "king": 4261,
      "kol": 4262,
      "kap": 4263,
      "kee": 4264,
      "kenn": 4265,
      "kamp": 4266,
      "krist": 4267,
      "lic": 4268,
      "las": 4269,
      "lig": 4270,
      "lum": 4271,
      "lack": 4272,
      "litt": 4273,
      "luk": 4274,
      "laur": 4275,
      "mit": 4276,
      "mons": 4277,
      "match": 4278,
      "nich": 4279,
      "nucle": 4280,
      "pt": 4281,
      "pon": 4282,
      "pic": 4283,
      "pad": 4284,
      "pow": 4285,
      "pie": 4286,
      "pill": 4287,
      "power": 4288,
      "rar": 4289,
      "rip": 4290,
      "rail": 4291,
      "russ": 4292,
      "sv": 4293,
      "son": 4294,
      "sit": 4295,
      "sund": 4296,
      "tan": 4297,
      "tit": 4298,
      "til": 4299,
      "tall": 4300,
      "tour": 4301,
      "uran": 4302,
      "vul": 4303,
      "vest": 4304,
      "veg": 4305,
      "wer": 4306,
      "wed": 4307,
      "wre": 4308,
      "wick": 4309,
      "warm": 4310,
      "worth": 4311,
      "wester": 4312,
      "yam": 4313,
      "zo": 4314,
      "##rin": 4315,
      "##uated": 4316,
      "##ny": 4317,
      "##now": 4318,
      "##ao": 4319,
      "##car": 4320,
      "##cing": 4321,
      "##cle": 4322,
      "##cell": 4323,
      "##lon": 4324,
      "##lad": 4325,
      "##low": 4326,
      "##yer": 4327,
      "##sa": 4328,
      "##tz": 4329,
      "##tain": 4330,
      "##gment": 4331,
      "##grad": 4332,
      "##ground": 4333,
      "##bed": 4334,
      "##born": 4335,
      "##zer": 4336,
      "##9th": 4337,
      "##fa": 4338,
      "##jan": 4339,
      "##vis": 4340,
      "##xim": 4341,
      "##3rd": 4342,
      "##inity": 4343,
      "##inations": 4344,
      "##anch": 4345,
      "##enes": 4346,
      "##ares": 4347,
      "##orous": 4348,
      "##ingham": 4349,
      "##iced": 4350,
      "##icit": 4351,
      "##ela": 4352,
      "##ury": 4353,
      "##lec": 4354,
      "##roid": 4355,
      "##using": 4356,
      "##ila": 4357,
      "##ilities": 4358,
      "##etr": 4359,
      "##ety": 4360,
      "##eting": 4361,
      "##oli": 4362,
      "##rag": 4363,
      "##raw": 4364,
      "ine": 4365,
      "inex": 4366,
      "##rep": 4367,
      "##enting": 4368,
      "##ompl": 4369,
      "reh": 4370,
      "rect": 4371,
      "recl": 4372,
      "##unch": 4373,
      "##unts": 4374,
      "##utions": 4375,
      "##uled": 4376,
      "##osc": 4377,
      "sto": 4378,
      "stad": 4379,
      "stim": 4380,
      "start": 4381,
      "stere": 4382,
      "stream": 4383,
      "stabil": 4384,
      "##idal": 4385,
      "##aces": 4386,
      "##ige": 4387,
      "##tery": 4388,
      "cher": 4389,
      "chall": 4390,
      "##aga": 4391,
      "##agen": 4392,
      "##ague": 4393,
      "any": 4394,
      "anch": 4395,
      "unw": 4396,
      "uncon": 4397,
      "unsu": 4398,
      "##thel": 4399,
      "##essing": 4400,
      "##eston": 4401,
      "encl": 4402,
      "##ayan": 4403,
      "##ogue": 4404,
      "##antic": 4405,
      "ald": 4406,
      "alleg": 4407,
      "ard": 4408,
      "arth": 4409,
      "prob": 4410,
      "prost": 4411,
      "prote": 4412,
      "process": 4413,
      "prohib": 4414,
      "##aka": 4415,
      "##aked": 4416,
      "##opic": 4417,
      "than": 4418,
      "therm": 4419,
      "##ellow": 4420,
      "disl": 4421,
      "cob": 4422,
      "cock": 4423,
      "coinc": 4424,
      "##alling": 4425,
      "##ifer": 4426,
      "advert": 4427,
      "seam": 4428,
      "separ": 4429,
      "##ption": 4430,
      "##ections": 4431,
      "imper": 4432,
      "impress": 4433,
      "clos": 4434,
      "clim": 4435,
      "scand": 4436,
      "scient": 4437,
      "neut": 4438,
      "ory": 4439,
      "orb": 4440,
      "orph": 4441,
      "beg": 4442,
      "##okes": 4443,
      "##anger": 4444,
      "quad": 4445,
      "marsh": 4446,
      "##rying": 4447,
      "##ache": 4448,
      "##ached": 4449,
      "fore": 4450,
      "resc": 4451,
      "resol": 4452,
      "reserv": 4453,
      "subm": 4454,
      "##rict": 4455,
      "perc": 4456,
      "peri": 4457,
      "prepar": 4458,
      "prefer": 4459,
      "recomm": 4460,
      "where": 4461,
      "intim": 4462,
      "intens": 4463,
      "contrad": 4464,
      "##anning": 4465,
      "obsc": 4466,
      "object": 4467,
      "##uced": 4468,
      "indic": 4469,
      "appe": 4470,
      "corresp": 4471,
      "loy": 4472,
      "overd": 4473,
      "overl": 4474,
      "##aux": 4475,
      "crit": 4476,
      "##ulture": 4477,
      "tex": 4478,
      "incre": 4479,
      "guer": 4480,
      "##onds": 4481,
      "##airs": 4482,
      "##encing": 4483,
      "##boy": 4484,
      "##bound": 4485,
      "improv": 4486,
      "stein": 4487,
      "steam": 4488,
      "grav": 4489,
      "evac": 4490,
      "reflect": 4491,
      "consum": 4492,
      "repe": 4493,
      "##ipping": 4494,
      "invol": 4495,
      "##ctional": 4496,
      "touch": 4497,
      "transm": 4498,
      "transform": 4499,
      "build": 4500,
      "depart": 4501,
      "extrem": 4502,
      "free": 4503,
      "##umble": 4504,
      "astron": 4505,
      "pursu": 4506,
      "develop": 4507,
      "crew": 4508,
      "drag": 4509,
      "patri": 4510,
      "announ": 4511,
      "music": 4512,
      "trium": 4513,
      "concent": 4514,
      "frank": 4515,
      "particip": 4516,
      "twe": 4517,
      "##ships": 4518,
      "film": 4519,
      "milit": 4520,
      "admir": 4521,
      "autom": 4522,
      "legisl": 4523,
      "collabor": 4524,
      "catal": 4525,
      "elev": 4526,
      "satis": 4527,
      "court": 4528,
      "inhib": 4529,
      "employ": 4530,
      "optim": 4531,
      "cosm": 4532,
      "navig": 4533,
      "folk": 4534,
      "quarter": 4535,
      "##mouth": 4536,
      "envir": 4537,
      "maxim": 4538,
      "princip": 4539,
      "fluor": 4540,
      "screen": 4541,
      "custom": 4542,
      "olymp": 4543,
      "academ": 4544,
      "demonstr": 4545,
      "100": 4546,
      "aes": 4547,
      "bin": 4548,
      "bund": 4549,
      "bry": 4550,
      "brow": 4551,
      "bio": 4552,
      "bert": 4553,
      "bush": 4554,
      "cran": 4555,
      "din": 4556,
      "dro": 4557,
      "dre": 4558,
      "dent": 4559,
      "dod": 4560,
      "earn": 4561,
      "fest": 4562,
      "fif": 4563,
      "fib": 4564,
      "fru": 4565,
      "field": 4566,
      "finn": 4567,
      "fasc": 4568,
      "gy": 4569,
      "gw": 4570,
      "gon": 4571,
      "gle": 4572,
      "gos": 4573,
      "gly": 4574,
      "gab": 4575,
      "gest": 4576,
      "han": 4577,
      "het": 4578,
      "hut": 4579,
      "hog": 4580,
      "hell": 4581,
      "hill": 4582,
      "hend": 4583,
      "hast": 4584,
      "hans": 4585,
      "hann": 4586,
      "ih": 4587,
      "ij": 4588,
      "iw": 4589,
      "ira": 4590,
      "its": 4591,
      "jar": 4592,
      "jav": 4593,
      "jenn": 4594,
      "jew": 4595,
      "journ": 4596,
      "ky": 4597,
      "kick": 4598,
      "kind": 4599,
      "kau": 4600,
      "len": 4601,
      "lut": 4602,
      "lad": 4603,
      "lag": 4604,
      "lip": 4605,
      "lect": 4606,
      "lass": 4607,
      "lanc": 4608,
      "lich": 4609,
      "light": 4610,
      "liter": 4611,
      "mul": 4612,
      "mim": 4613,
      "mud": 4614,
      "must": 4615,
      "maur": 4616,
      "mira": 4617,
      "nd": 4618,
      "ni": 4619,
      "ny": 4620,
      "nit": 4621,
      "naz": 4622,
      "norm": 4623,
      "ou": 4624,
      "oy": 4625,
      "pent": 4626,
      "put": 4627,
      "pip": 4628,
      "pall": 4629,
      "paw": 4630,
      "pict": 4631,
      "pitch": 4632,
      "padd": 4633,
      "ral": 4634,
      "rit": 4635,
      "rim": 4636,
      "rand": 4637,
      "rif": 4638,
      "rik": 4639,
      "rush": 4640,
      "sun": 4641,
      "sad": 4642,
      "sant": 4643,
      "sib": 4644,
      "sust": 4645,
      "saf": 4646,
      "six": 4647,
      "tu": 4648,
      "ti": 4649,
      "tut": 4650,
      "tend": 4651,
      "trig": 4652,
      "trop": 4653,
      "uct": 4654,
      "ups": 4655,
      "vik": 4656,
      "verm": 4657,
      "wy": 4658,
      "winn": 4659,
      "week": 4660,
      "wonder": 4661,
      "xx": 4662,
      "æthel": 4663,
      "##eer": 4664,
      "##rat": 4665,
      "##rates": 4666,
      "##hn": 4667,
      "##hol": 4668,
      "##hem": 4669,
      "##hard": 4670,
      "##ael": 4671,
      "##aire": 4672,
      "##can": 4673,
      "##cor": 4674,
      "##mi": 4675,
      "##iant": 4676,
      "##iable": 4677,
      "##lav": 4678,
      "##light": 4679,
      "##sm": 4680,
      "##ters": 4681,
      "##ties": 4682,
      "##gn": 4683,
      "##gate": 4684,
      "##bl": 4685,
      "##bel": 4686,
      "##bro": 4687,
      "##band": 4688,
      "##bach": 4689,
      "##occ": 4690,
      "##fts": 4691,
      "##fire": 4692,
      "##8th": 4693,
      "##kel": 4694,
      "##7th": 4695,
      "##..": 4696,
      "##eral": 4697,
      "##erted": 4698,
      "##iny": 4699,
      "##inted": 4700,
      "##oning": 4701,
      "##onian": 4702,
      "##anu": 4703,
      "##edy": 4704,
      "##ench": 4705,
      "##arth": 4706,
      "##aters": 4707,
      "##alism": 4708,
      "##ora": 4709,
      "##oration": 4710,
      "##isions": 4711,
      "##icy": 4712,
      "##icing": 4713,
      "##icity": 4714,
      "##itness": 4715,
      "##elf": 4716,
      "##urr": 4717,
      "##roc": 4718,
      "##rot": 4719,
      "##usive": 4720,
      "##ilar": 4721,
      "##eters": 4722,
      "##olar": 4723,
      "##olid": 4724,
      "##rain": 4725,
      "##omed": 4726,
      "##ami": 4727,
      "##amin": 4728,
      "reun": 4729,
      "##uter": 4730,
      "##ults": 4731,
      "##ulations": 4732,
      "##ulting": 4733,
      "struct": 4734,
      "##iders": 4735,
      "##idia": 4736,
      "##adi": 4737,
      "##lying": 4738,
      "##igan": 4739,
      "##umps": 4740,
      "##iving": 4741,
      "##eme": 4742,
      "##emn": 4743,
      "chap": 4744,
      "chev": 4745,
      "cong": 4746,
      "convers": 4747,
      "conduct": 4748,
      "##imp": 4749,
      "anton": 4750,
      "unl": 4751,
      "unde": 4752,
      "unbe": 4753,
      "unex": 4754,
      "univers": 4755,
      "##isting": 4756,
      "##oda": 4757,
      "##estone": 4758,
      "ende": 4759,
      "##ppe": 4760,
      "shap": 4761,
      "dead": 4762,
      "deep": 4763,
      "##aya": 4764,
      "##ayed": 4765,
      "##ogy": 4766,
      "##ante": 4767,
      "##ardo": 4768,
      "##arded": 4769,
      "alm": 4770,
      "alum": 4771,
      "allo": 4772,
      "##iana": 4773,
      "##iang": 4774,
      "prol": 4775,
      "proph": 4776,
      "progress": 4777,
      "##aki": 4778,
      "##oped": 4779,
      "sugg": 4780,
      "spac": 4781,
      "spons": 4782,
      "sports": 4783,
      "##ques": 4784,
      "disin": 4785,
      "discover": 4786,
      "comment": 4787,
      "##iller": 4788,
      "##alled": 4789,
      "##uding": 4790,
      "##ptic": 4791,
      "##lov": 4792,
      "##load": 4793,
      "##asted": 4794,
      "impr": 4795,
      "amp": 4796,
      "ampl": 4797,
      "##place": 4798,
      "##ishes": 4799,
      "necess": 4800,
      "orth": 4801,
      "bee": 4802,
      "beck": 4803,
      "##oker": 4804,
      "elim": 4805,
      "abol": 4806,
      "##oured": 4807,
      "phen": 4808,
      "phyl": 4809,
      "##rys": 4810,
      "flam": 4811,
      "flag": 4812,
      "flav": 4813,
      "carl": 4814,
      "param": 4815,
      "##rone": 4816,
      "forb": 4817,
      "forec": 4818,
      "reson": 4819,
      "interact": 4820,
      "perf": 4821,
      "preced": 4822,
      "trav": 4823,
      "intr": 4824,
      "contra": 4825,
      "contract": 4826,
      "monte": 4827,
      "##ologically": 4828,
      "ont": 4829,
      "appropri": 4830,
      "soft": 4831,
      "##ughter": 4832,
      "correct": 4833,
      "##ashi": 4834,
      "##ashing": 4835,
      "lou": 4836,
      "antiqu": 4837,
      "outl": 4838,
      "outs": 4839,
      "##rowing": 4840,
      "incomp": 4841,
      "accum": 4842,
      "accomp": 4843,
      "accompl": 4844,
      "mane": 4845,
      "manip": 4846,
      "manif": 4847,
      "assoc": 4848,
      "##ailing": 4849,
      "##sequ": 4850,
      "commem": 4851,
      "weak": 4852,
      "steph": 4853,
      "diam": 4854,
      "mcn": 4855,
      "mcm": 4856,
      "##itioned": 4857,
      "##itional": 4858,
      "gradu": 4859,
      "apolog": 4860,
      "eval": 4861,
      "evol": 4862,
      "breath": 4863,
      "reform": 4864,
      "metall": 4865,
      "surf": 4866,
      "defin": 4867,
      "##uke": 4868,
      "##uki": 4869,
      "##ribed": 4870,
      "osaur": 4871,
      "herb": 4872,
      "hero": 4873,
      "stret": 4874,
      "##aneous": 4875,
      "merch": 4876,
      "decre": 4877,
      "estim": 4878,
      "estab": 4879,
      "##rome": 4880,
      "belie": 4881,
      "ground": 4882,
      "gross": 4883,
      "instruct": 4884,
      "deter": 4885,
      "purch": 4886,
      "##ographic": 4887,
      "##ifications": 4888,
      "knock": 4889,
      "curt": 4890,
      "##uality": 4891,
      "theod": 4892,
      "moder": 4893,
      "persu": 4894,
      "##coming": 4895,
      "after": 4896,
      "verte": 4897,
      "construct": 4898,
      "electron": 4899,
      "simpl": 4900,
      "treat": 4901,
      "propag": 4902,
      "motiv": 4903,
      "own": 4904,
      "news": 4905,
      "block": 4906,
      "human": 4907,
      "wrest": 4908,
      "##ommod": 4909,
      "myth": 4910,
      "libr": 4911,
      "suppl": 4912,
      "temper": 4913,
      "##point": 4914,
      "profess": 4915,
      "furn": 4916,
      "syst": 4917,
      "william": 4918,
      "##weight": 4919,
      "respons": 4920,
      "##uzz": 4921,
      "negot": 4922,
      "philos": 4923,
      "anthrop": 4924,
      "popular": 4925,
      "john": 4926,
      "subsid": 4927,
      "german": 4928,
      "dismiss": 4929,
      "reconst": 4930,
      "substit": 4931,
      "##contin": 4932,
      "austral": 4933,
      "young": 4934,
      "august": 4935,
      "cultiv": 4936,
      "histor": 4937,
      "enthus": 4938,
      "success": 4939,
      "##works": 4940,
      "orchest": 4941,
      "appreci": 4942,
      "program": 4943,
      "civil": 4944,
      "docum": 4945,
      "sculpt": 4946,
      "manufact": 4947,
      "correspond": 4948,
      "environ": 4949,
      "aj": 4950,
      "ail": 4951,
      "aps": 4952,
      "bil": 4953,
      "bent": 4954,
      "bass": 4955,
      "bart": 4956,
      "bub": 4957,
      "bach": 4958,
      "benn": 4959,
      "beng": 4960,
      "butt": 4961,
      "bridge": 4962,
      "brown": 4963,
      "cn": 4964,
      "cm": 4965,
      "ct": 4966,
      "cri": 4967,
      "cot": 4968,
      "cyn": 4969,
      "camb": 4970,
      "dut": 4971,
      "dug": 4972,
      "dens": 4973,
      "dick": 4974,
      "dru": 4975,
      "dial": 4976,
      "daw": 4977,
      "dob": 4978,
      "eas": 4979,
      "eri": 4980,
      "eck": 4981,
      "ecl": 4982,
      "erupt": 4983,
      "fus": 4984,
      "fet": 4985,
      "four": 4986,
      "foss": 4987,
      "funn": 4988,
      "fulf": 4989,
      "gent": 4990,
      "gust": 4991,
      "gaz": 4992,
      "germ": 4993,
      "goth": 4994,
      "gott": 4995,
      "grim": 4996,
      "gamb": 4997,
      "hr": 4998,
      "hit": 4999,
      "has": 5000,
      "had": 5001,
      "hak": 5002,
      "hide": 5003,
      "hung": 5004,
      "house": 5005,
      "hiro": 5006,
      "hisp": 5007,
      "iy": 5008,
      "ict": 5009,
      "ice": 5010,
      "jes": 5011,
      "jag": 5012,
      "jour": 5013,
      "jov": 5014,
      "kas": 5015,
      "ket": 5016,
      "kri": 5017,
      "kim": 5018,
      "kne": 5019,
      "kiss": 5020,
      "keep": 5021,
      "lod": 5022,
      "lak": 5023,
      "lud": 5024,
      "laz": 5025,
      "link": 5026,
      "lux": 5027,
      "liqu": 5028,
      "ment": 5029,
      "mom": 5030,
      "mell": 5031,
      "mine": 5032,
      "mold": 5033,
      "memb": 5034,
      "mamm": 5035,
      "myster": 5036,
      "nj": 5037,
      "nak": 5038,
      "nah": 5039,
      "nurs": 5040,
      "of": 5041,
      "our": 5042,
      "oun": 5043,
      "pi": 5044,
      "pist": 5045,
      "pinn": 5046,
      "pomp": 5047,
      "rn": 5048,
      "rp": 5049,
      "ring": 5050,
      "rag": 5051,
      "rick": 5052,
      "rah": 5053,
      "raz": 5054,
      "rost": 5055,
      "ruth": 5056,
      "si": 5057,
      "sz": 5058,
      "sul": 5059,
      "say": 5060,
      "sap": 5061,
      "sik": 5062,
      "saw": 5063,
      "side": 5064,
      "song": 5065,
      "sadd": 5066,
      "tat": 5067,
      "tul": 5068,
      "tum": 5069,
      "tow": 5070,
      "tang": 5071,
      "tact": 5072,
      "tenn": 5073,
      "toler": 5074,
      "ust": 5075,
      "upl": 5076,
      "ves": 5077,
      "vib": 5078,
      "vern": 5079,
      "vert": 5080,
      "wes": 5081,
      "word": 5082,
      "wald": 5083,
      "warr": 5084,
      "wadd": 5085,
      "york": 5086,
      "zz": 5087,
      "##ead": 5088,
      "##rell": 5089,
      "##rical": 5090,
      "##hous": 5091,
      "##hyd": 5092,
      "##uit": 5093,
      "##uce": 5094,
      "##uary": 5095,
      "##nik": 5096,
      "##aug": 5097,
      "##cin": 5098,
      "##craft": 5099,
      "##my": 5100,
      "##mers": 5101,
      "##iot": 5102,
      "##iors": 5103,
      "##lam": 5104,
      "##lings": 5105,
      "##yard": 5106,
      "##yte": 5107,
      "##tes": 5108,
      "##tra": 5109,
      "##town": 5110,
      "##bu": 5111,
      "##bra": 5112,
      "##bir": 5113,
      "##oh": 5114,
      "##ois": 5115,
      "##oub": 5116,
      "##oons": 5117,
      "##fri": 5118,
      "##je": 5119,
      "##joy": 5120,
      "##west": 5121,
      "##kan": 5122,
      "##key": 5123,
      "##kee": 5124,
      "##pin": 5125,
      "##pie": 5126,
      "##pine": 5127,
      "##erts": 5128,
      "##erve": 5129,
      "##inous": 5130,
      "##inates": 5131,
      "##inals": 5132,
      "##oney": 5133,
      "##aned": 5134,
      "##aning": 5135,
      "##ania": 5136,
      "##anese": 5137,
      "##ede": 5138,
      "##enger": 5139,
      "##aro": 5140,
      "##atern": 5141,
      "##atures": 5142,
      "##atively": 5143,
      "##atops": 5144,
      "##alg": 5145,
      "##alists": 5146,
      "##alities": 5147,
      "##alty": 5148,
      "##orate": 5149,
      "##orial": 5150,
      "##ingly": 5151,
      "##ican": 5152,
      "##icial": 5153,
      "##ications": 5154,
      "##icted": 5155,
      "##itory": 5156,
      "##itarian": 5157,
      "##elly": 5158,
      "##ioned": 5159,
      "##ionist": 5160,
      "##urd": 5161,
      "##asa": 5162,
      "##asant": 5163,
      "##asia": 5164,
      "##room": 5165,
      "##rose": 5166,
      "##roduct": 5167,
      "##uster": 5168,
      "##ilit": 5169,
      "##etics": 5170,
      "##olic": 5171,
      "##olia": 5172,
      "##chw": 5173,
      "##chem": 5174,
      "##chester": 5175,
      "inver": 5176,
      "inher": 5177,
      "##omer": 5178,
      "##omen": 5179,
      "##oming": 5180,
      "##ams": 5181,
      "##aments": 5182,
      "reass": 5183,
      "rehe": 5184,
      "revers": 5185,
      "reorgan": 5186,
      "##unting": 5187,
      "##rier": 5188,
      "##uting": 5189,
      "##ulous": 5190,
      "##ulted": 5191,
      "##oster": 5192,
      "stu": 5193,
      "sta": 5194,
      "stick": 5195,
      "story": 5196,
      "##otion": 5197,
      "##ido": 5198,
      "##iden": 5199,
      "##idel": 5200,
      "##ums": 5201,
      "##uman": 5202,
      "##umes": 5203,
      "##umed": 5204,
      "##ivid": 5205,
      "##ema": 5206,
      "##ematic": 5207,
      "chur": 5208,
      "chet": 5209,
      "chand": 5210,
      "chak": 5211,
      "chanc": 5212,
      "chair": 5213,
      "##ago": 5214,
      "congr": 5215,
      "##sts": 5216,
      "ank": 5217,
      "anat": 5218,
      "anarch": 5219,
      "uncom": 5220,
      "##istent": 5221,
      "##istry": 5222,
      "##abe": 5223,
      "##anders": 5224,
      "enn": 5225,
      "enz": 5226,
      "##phs": 5227,
      "##owski": 5228,
      "##ppen": 5229,
      "##ppers": 5230,
      "sha": 5231,
      "shut": 5232,
      "shad": 5233,
      "shak": 5234,
      "shock": 5235,
      "deal": 5236,
      "depress": 5237,
      "##ayer": 5238,
      "##oga": 5239,
      "##anton": 5240,
      "##arding": 5241,
      "als": 5242,
      "alf": 5243,
      "arn": 5244,
      "arri": 5245,
      "arran": 5246,
      "proc": 5247,
      "procl": 5248,
      "product": 5249,
      "##akh": 5250,
      "exter": 5251,
      "exha": 5252,
      "execut": 5253,
      "exhib": 5254,
      "spo": 5255,
      "spot": 5256,
      "spring": 5257,
      "thess": 5258,
      "there": 5259,
      "##iah": 5260,
      "disag": 5261,
      "disrupt": 5262,
      "##aves": 5263,
      "##ieu": 5264,
      "cou": 5265,
      "cool": 5266,
      "coord": 5267,
      "cooper": 5268,
      "##enders": 5269,
      "##ifies": 5270,
      "##uder": 5271,
      "adol": 5272,
      "adop": 5273,
      "adapt": 5274,
      "##uge": 5275,
      "##ugs": 5276,
      "sev": 5277,
      "sect": 5278,
      "search": 5279,
      "sevent": 5280,
      "##ectors": 5281,
      "##asters": 5282,
      "lew": 5283,
      "lex": 5284,
      "lead": 5285,
      "americ": 5286,
      "##ortun": 5287,
      "##orse": 5288,
      "##orship": 5289,
      "##eyer": 5290,
      "##underst": 5291,
      "cloth": 5292,
      "cliff": 5293,
      "##ishment": 5294,
      "ort": 5295,
      "##ighter": 5296,
      "##ighted": 5297,
      "##ocene": 5298,
      "pron": 5299,
      "##ubs": 5300,
      "beat": 5301,
      "bever": 5302,
      "beau": 5303,
      "##acks": 5304,
      "##acked": 5305,
      "##pert": 5306,
      "plac": 5307,
      "##angel": 5308,
      "##ruction": 5309,
      "eld": 5310,
      "que": 5311,
      "quart": 5312,
      "quint": 5313,
      "phon": 5314,
      "phant": 5315,
      "phosph": 5316,
      "marg": 5317,
      "##ove": 5318,
      "##derm": 5319,
      "##teen": 5320,
      "hew": 5321,
      "##bered": 5322,
      "##berry": 5323,
      "boun": 5324,
      "carp": 5325,
      "carol": 5326,
      "paral": 5327,
      "resur": 5328,
      "resemb": 5329,
      "subd": 5330,
      "subsc": 5331,
      "colle": 5332,
      "columb": 5333,
      "interc": 5334,
      "interf": 5335,
      "ism": 5336,
      "pert": 5337,
      "perform": 5338,
      "prevent": 5339,
      "recre": 5340,
      "recip": 5341,
      "recru": 5342,
      "agn": 5343,
      "agg": 5344,
      "agre": 5345,
      "aggreg": 5346,
      "bris": 5347,
      "##inster": 5348,
      "whis": 5349,
      "whist": 5350,
      "white": 5351,
      "intell": 5352,
      "control": 5353,
      "##ancing": 5354,
      "obst": 5355,
      "individ": 5356,
      "ons": 5357,
      "appar": 5358,
      "applic": 5359,
      "compar": 5360,
      "ers": 5361,
      "old": 5362,
      "coron": 5363,
      "##ymp": 5364,
      "overlo": 5365,
      "##etto": 5366,
      "antig": 5367,
      "crus": 5368,
      "crick": 5369,
      "incons": 5370,
      "access": 5371,
      "accord": 5372,
      "acceler": 5373,
      "accommod": 5374,
      "##erns": 5375,
      "assass": 5376,
      "assemb": 5377,
      "guar": 5378,
      "##upe": 5379,
      "infilt": 5380,
      "harmon": 5381,
      "common": 5382,
      "impro": 5383,
      "ske": 5384,
      "skel": 5385,
      "##enna": 5386,
      "##ennial": 5387,
      "diagn": 5388,
      "grad": 5389,
      "peace": 5390,
      "aval": 5391,
      "##ictions": 5392,
      "brew": 5393,
      "urg": 5394,
      "metaph": 5395,
      "surpr": 5396,
      "##burn": 5397,
      "consult": 5398,
      "glac": 5399,
      "attend": 5400,
      "attract": 5401,
      "regul": 5402,
      "retro": 5403,
      "confeder": 5404,
      "invent": 5405,
      "##atsu": 5406,
      "polit": 5407,
      "irr": 5408,
      "irre": 5409,
      "strateg": 5410,
      "smo": 5411,
      "small": 5412,
      "smith": 5413,
      "##armed": 5414,
      "salam": 5415,
      "deleg": 5416,
      "greg": 5417,
      "buff": 5418,
      "depos": 5419,
      "capital": 5420,
      "disturb": 5421,
      "##romb": 5422,
      "review": 5423,
      "##ceptions": 5424,
      "archit": 5425,
      "epid": 5426,
      "instrum": 5427,
      "superv": 5428,
      "determ": 5429,
      "##duction": 5430,
      "discuss": 5431,
      "laun": 5432,
      "theat": 5433,
      "##ummer": 5434,
      "121": 5435,
      "trip": 5436,
      "artic": 5437,
      "propri": 5438,
      "clear": 5439,
      "awa": 5440,
      "affili": 5441,
      "radio": 5442,
      "dispers": 5443,
      "protest": 5444,
      "portra": 5445,
      "synd": 5446,
      "troub": 5447,
      "advis": 5448,
      "advent": 5449,
      "advoc": 5450,
      "mccl": 5451,
      "autob": 5452,
      "excav": 5453,
      "honor": 5454,
      "##rayed": 5455,
      "##umped": 5456,
      "dissol": 5457,
      "##escent": 5458,
      "flood": 5459,
      "mahar": 5460,
      "##backs": 5461,
      "ethn": 5462,
      "escal": 5463,
      "multip": 5464,
      "murder": 5465,
      "oxid": 5466,
      "paul": 5467,
      "##borough": 5468,
      "inhab": 5469,
      "##rews": 5470,
      "friend": 5471,
      "natural": 5472,
      "sanct": 5473,
      "##ription": 5474,
      "arab": 5475,
      "favour": 5476,
      "tyran": 5477,
      "orient": 5478,
      "other": 5479,
      "reinfor": 5480,
      "absor": 5481,
      "influ": 5482,
      "budd": 5483,
      "veh": 5484,
      "photograph": 5485,
      "cruc": 5486,
      "superst": 5487,
      "continu": 5488,
      "function": 5489,
      "sacrif": 5490,
      "##osphere": 5491,
      "hypoth": 5492,
      "brief": 5493,
      "culm": 5494,
      "##whel": 5495,
      "oblig": 5496,
      "mobil": 5497,
      "analys": 5498,
      "acknow": 5499,
      "femin": 5500,
      "jacob": 5501,
      "alexand": 5502,
      "dynam": 5503,
      "cryst": 5504,
      "fresh": 5505,
      "incorpor": 5506,
      "meteor": 5507,
      "veget": 5508,
      "maneu": 5509,
      "philosoph": 5510,
      "acknowled": 5511,
      "ae": 5512,
      "ais": 5513,
      "aly": 5514,
      "aim": 5515,
      "apt": 5516,
      "aft": 5517,
      "aux": 5518,
      "bm": 5519,
      "bom": 5520,
      "bly": 5521,
      "big": 5522,
      "bip": 5523,
      "bish": 5524,
      "bik": 5525,
      "bure": 5526,
      "bann": 5527,
      "bond": 5528,
      "byp": 5529,
      "bright": 5530,
      "bacter": 5531,
      "cc": 5532,
      "cs": 5533,
      "cp": 5534,
      "cig": 5535,
      "cors": 5536,
      "cord": 5537,
      "cyl": 5538,
      "cup": 5539,
      "cater": 5540,
      "cere": 5541,
      "cott": 5542,
      "categ": 5543,
      "dy": 5544,
      "dv": 5545,
      "dat": 5546,
      "dil": 5547,
      "dul": 5548,
      "did": 5549,
      "dir": 5550,
      "dow": 5551,
      "dors": 5552,
      "dance": 5553,
      "drom": 5554,
      "duch": 5555,
      "dani": 5556,
      "ew": 5557,
      "elo": 5558,
      "esh": 5559,
      "eric": 5560,
      "fi": 5561,
      "fan": 5562,
      "fis": 5563,
      "fro": 5564,
      "fast": 5565,
      "find": 5566,
      "fals": 5567,
      "fash": 5568,
      "fold": 5569,
      "fict": 5570,
      "fract": 5571,
      "fitz": 5572,
      "gn": 5573,
      "ges": 5574,
      "get": 5575,
      "gom": 5576,
      "gate": 5577,
      "gob": 5578,
      "hm": 5579,
      "hi": 5580,
      "hers": 5581,
      "hul": 5582,
      "him": 5583,
      "hod": 5584,
      "hess": 5585,
      "hym": 5586,
      "hert": 5587,
      "hills": 5588,
      "io": 5589,
      "ier": 5590,
      "ian": 5591,
      "iro": 5592,
      "jon": 5593,
      "jos": 5594,
      "jay": 5595,
      "jev": 5596,
      "jose": 5597,
      "km": 5598,
      "ki": 5599,
      "kw": 5600,
      "kan": 5601,
      "kes": 5602,
      "kit": 5603,
      "kent": 5604,
      "kos": 5605,
      "kess": 5606,
      "kub": 5607,
      "kath": 5608,
      "kins": 5609,
      "li": 5610,
      "ll": 5611,
      "ls": 5612,
      "lj": 5613,
      "lon": 5614,
      "ling": 5615,
      "lis": 5616,
      "lac": 5617,
      "liz": 5618,
      "lys": 5619,
      "lith": 5620,
      "leth": 5621,
      "lomb": 5622,
      "length": 5623,
      "lanth": 5624,
      "lingu": 5625,
      "mp": 5626,
      "mam": 5627,
      "mak": 5628,
      "mick": 5629,
      "mcl": 5630,
      "more": 5631,
      "myr": 5632,
      "maint": 5633,
      "ns": 5634,
      "np": 5635,
      "nan": 5636,
      "nur": 5637,
      "nation": 5638,
      "now": 5639,
      "nost": 5640,
      "oro": 5641,
      "ora": 5642,
      "oce": 5643,
      "oman": 5644,
      "osh": 5645,
      "ode": 5646,
      "osp": 5647,
      "ouch": 5648,
      "pd": 5649,
      "pas": 5650,
      "pam": 5651,
      "pter": 5652,
      "pian": 5653,
      "pend": 5654,
      "pec": 5655,
      "panc": 5656,
      "pier": 5657,
      "pse": 5658,
      "patt": 5659,
      "pix": 5660,
      "push": 5661,
      "pyr": 5662,
      "rer": 5663,
      "ron": 5664,
      "rol": 5665,
      "rul": 5666,
      "rous": 5667,
      "rach": 5668,
      "rash": 5669,
      "ratt": 5670,
      "ramp": 5671,
      "rapp": 5672,
      "rank": 5673,
      "ross": 5674,
      "rose": 5675,
      "sas": 5676,
      "sut": 5677,
      "sag": 5678,
      "syl": 5679,
      "sau": 5680,
      "sulf": 5681,
      "ted": 5682,
      "tus": 5683,
      "tent": 5684,
      "tant": 5685,
      "tib": 5686,
      "tort": 5687,
      "tack": 5688,
      "try": 5689,
      "tong": 5690,
      "toll": 5691,
      "tatt": 5692,
      "tae": 5693,
      "tunn": 5694,
      "uch": 5695,
      "ura": 5696,
      "uph": 5697,
      "uff": 5698,
      "upt": 5699,
      "usc": 5700,
      "use": 5701,
      "vin": 5702,
      "vine": 5703,
      "vinc": 5704,
      "veter": 5705,
      "ww": 5706,
      "wis": 5707,
      "way": 5708,
      "well": 5709,
      "wend": 5710,
      "wiz": 5711,
      "wast": 5712,
      "wyn": 5713,
      "wash": 5714,
      "warn": 5715,
      "wool": 5716,
      "wrong": 5717,
      "xen": 5718,
      "yn": 5719,
      "yard": 5720,
      "yok": 5721,
      "yank": 5722,
      "yosh": 5723,
      "zor": 5724,
      "##eur": 5725,
      "##eem": 5726,
      "##ever": 5727,
      "##rant": 5728,
      "##rate": 5729,
      "##rine": 5730,
      "##ho": 5731,
      "##hall": 5732,
      "##hart": 5733,
      "##uals": 5734,
      "##nant": 5735,
      "##cat": 5736,
      "##cal": 5737,
      "##cott": 5738,
      "##dal": 5739,
      "##mun": 5740,
      "##more": 5741,
      "##most": 5742,
      "##mitt": 5743,
      "##mont": 5744,
      "##master": 5745,
      "##iary": 5746,
      "##iating": 5747,
      "##list": 5748,
      "##lies": 5749,
      "##lass": 5750,
      "##lines": 5751,
      "##yb": 5752,
      "##yan": 5753,
      "##sl": 5754,
      "##time": 5755,
      "##bul": 5756,
      "##bow": 5757,
      "##oa": 5758,
      "##oes": 5759,
      "##oen": 5760,
      "##oint": 5761,
      "##oft": 5762,
      "##zed": 5763,
      "##fc": 5764,
      "##far": 5765,
      "##feld": 5766,
      "##fare": 5767,
      "##jord": 5768,
      "##wal": 5769,
      "##wart": 5770,
      "##wester": 5771,
      "##kh": 5772,
      "##kn": 5773,
      "##ket": 5774,
      "##pat": 5775,
      "##power": 5776,
      "##xon": 5777,
      "##ðr": 5778,
      "##ław": 5779,
      "##erb": 5780,
      "##eries": 5781,
      "##erence": 5782,
      "##erina": 5783,
      "##inent": 5784,
      "##inth": 5785,
      "##inian": 5786,
      "##onom": 5787,
      "##anas": 5788,
      "##anne": 5789,
      "##eda": 5790,
      "##enberg": 5791,
      "##enburg": 5792,
      "##aria": 5793,
      "##atis": 5794,
      "##atro": 5795,
      "##atter": 5796,
      "##alus": 5797,
      "##alous": 5798,
      "##orf": 5799,
      "##orus": 5800,
      "##inging": 5801,
      "##isan": 5802,
      "##icz": 5803,
      "##icts": 5804,
      "##icating": 5805,
      "##icult": 5806,
      "##itis": 5807,
      "##iters": 5808,
      "##itative": 5809,
      "##elin": 5810,
      "##urred": 5811,
      "##aser": 5812,
      "##asion": 5813,
      "##lete": 5814,
      "##rote": 5815,
      "##rooms": 5816,
      "##usions": 5817,
      "##ilus": 5818,
      "##ilation": 5819,
      "##illy": 5820,
      "##ilia": 5821,
      "##eto": 5822,
      "##etra": 5823,
      "##etary": 5824,
      "##etime": 5825,
      "##olk": 5826,
      "##olith": 5827,
      "##cht": 5828,
      "##rained": 5829,
      "inac": 5830,
      "inact": 5831,
      "inject": 5832,
      "ingen": 5833,
      "##reh": 5834,
      "##reet": 5835,
      "##amy": 5836,
      "##aman": 5837,
      "##amorph": 5838,
      "reck": 5839,
      "reich": 5840,
      "reve": 5841,
      "reapp": 5842,
      "reject": 5843,
      "reason": 5844,
      "rejo": 5845,
      "rewr": 5846,
      "##unction": 5847,
      "##rik": 5848,
      "##rians": 5849,
      "##riage": 5850,
      "##ride": 5851,
      "##osity": 5852,
      "ster": 5853,
      "stam": 5854,
      "stab": 5855,
      "stall": 5856,
      "storm": 5857,
      "stair": 5858,
      "stone": 5859,
      "strong": 5860,
      "##oton": 5861,
      "##otam": 5862,
      "##othe": 5863,
      "##idated": 5864,
      "##idity": 5865,
      "##idence": 5866,
      "##ador": 5867,
      "##acle": 5868,
      "##iveness": 5869,
      "##emic": 5870,
      "ches": 5871,
      "chen": 5872,
      "chel": 5873,
      "chol": 5874,
      "chim": 5875,
      "chart": 5876,
      "chick": 5877,
      "chann": 5878,
      "congress": 5879,
      "congreg": 5880,
      "##irus": 5881,
      "##stan": 5882,
      "##imon": 5883,
      "##iments": 5884,
      "##immer": 5885,
      "anom": 5886,
      "anne": 5887,
      "unh": 5888,
      "unin": 5889,
      "unch": 5890,
      "unim": 5891,
      "unif": 5892,
      "unlo": 5893,
      "unint": 5894,
      "##istically": 5895,
      "##the": 5896,
      "##ths": 5897,
      "##ando": 5898,
      "##anded": 5899,
      "##odon": 5900,
      "##esty": 5901,
      "ench": 5902,
      "enco": 5903,
      "encom": 5904,
      "enfor": 5905,
      "energ": 5906,
      "##pher": 5907,
      "##phone": 5908,
      "dece": 5909,
      "death": 5910,
      "degen": 5911,
      "##aying": 5912,
      "alk": 5913,
      "alam": 5914,
      "alien": 5915,
      "arc": 5916,
      "ark": 5917,
      "proce": 5918,
      "prosp": 5919,
      "##vere": 5920,
      "exh": 5921,
      "exce": 5922,
      "exec": 5923,
      "exerc": 5924,
      "##opy": 5925,
      "##opol": 5926,
      "suc": 5927,
      "spin": 5928,
      "spor": 5929,
      "spart": 5930,
      "spark": 5931,
      "spani": 5932,
      "thel": 5933,
      "thur": 5934,
      "them": 5935,
      "thick": 5936,
      "thunder": 5937,
      "##apy": 5938,
      "discl": 5939,
      "discontin": 5940,
      "##aved": 5941,
      "##avia": 5942,
      "comed": 5943,
      "compr": 5944,
      "##illo": 5945,
      "cover": 5946,
      "adri": 5947,
      "adap": 5948,
      "advers": 5949,
      "##ibi": 5950,
      "##ibly": 5951,
      "see": 5952,
      "sew": 5953,
      "seab": 5954,
      "seaw": 5955,
      "##izer": 5956,
      "##rance": 5957,
      "leh": 5958,
      "leon": 5959,
      "leaf": 5960,
      "learn": 5961,
      "amen": 5962,
      "amaz": 5963,
      "asym": 5964,
      "##enson": 5965,
      "##enses": 5966,
      "##ensed": 5967,
      "##ensions": 5968,
      "##icals": 5969,
      "##assing": 5970,
      "##cca": 5971,
      "cler": 5972,
      "climb": 5973,
      "##ples": 5974,
      "##ishn": 5975,
      "scen": 5976,
      "scot": 5977,
      "script": 5978,
      "empl": 5979,
      "emigr": 5980,
      "near": 5981,
      "nept": 5982,
      "rox": 5983,
      "rout": 5984,
      "roph": 5985,
      "round": 5986,
      "roof": 5987,
      "org": 5988,
      "order": 5989,
      "##ocation": 5990,
      "prin": 5991,
      "prel": 5992,
      "##ube": 5993,
      "bear": 5994,
      "pled": 5995,
      "plot": 5996,
      "plate": 5997,
      "##rup": 5998,
      "elabor": 5999,
      "quot": 6000,
      "quant": 6001,
      "##ahl": 6002,
      "abor": 6003,
      "aband": 6004,
      "##ourse": 6005,
      "pharm": 6006,
      "##usting": 6007,
      "mars": 6008,
      "marqu": 6009,
      "##oven": 6010,
      "##teenth": 6011,
      "heb": 6012,
      "hein": 6013,
      "hear": 6014,
      "heath": 6015,
      "##awn": 6016,
      "##aws": 6017,
      "##berto": 6018,
      "boot": 6019,
      "bound": 6020,
      "book": 6021,
      "fled": 6022,
      "flor": 6023,
      "flow": 6024,
      "flash": 6025,
      "care": 6026,
      "pars": 6027,
      "paras": 6028,
      "parad": 6029,
      "parth": 6030,
      "parall": 6031,
      "parli": 6032,
      "resear": 6033,
      "blind": 6034,
      "blaz": 6035,
      "##tings": 6036,
      "interrupt": 6037,
      "isa": 6038,
      "isc": 6039,
      "isol": 6040,
      "perce": 6041,
      "record": 6042,
      "agric": 6043,
      "aggress": 6044,
      "##obic": 6045,
      "brun": 6046,
      "brut": 6047,
      "brush": 6048,
      "travel": 6049,
      "intel": 6050,
      "contr": 6051,
      "contro": 6052,
      "contribut": 6053,
      "mong": 6054,
      "##uces": 6055,
      "##ucing": 6056,
      "indo": 6057,
      "indul": 6058,
      "indef": 6059,
      "indep": 6060,
      "sched": 6061,
      "##ynam": 6062,
      "##issions": 6063,
      "ond": 6064,
      "appear": 6065,
      "apprent": 6066,
      "barr": 6067,
      "barn": 6068,
      "mex": 6069,
      "compan": 6070,
      "compos": 6071,
      "complet": 6072,
      "comprom": 6073,
      "complex": 6074,
      "err": 6075,
      "corpor": 6076,
      "sled": 6077,
      "slav": 6078,
      "illeg": 6079,
      "##yme": 6080,
      "##isms": 6081,
      "loud": 6082,
      "overth": 6083,
      "##etty": 6084,
      "##ettes": 6085,
      "##igning": 6086,
      "swall": 6087,
      "antagon": 6088,
      "anticip": 6089,
      "outc": 6090,
      "outf": 6091,
      "outp": 6092,
      "teen": 6093,
      "accept": 6094,
      "moh": 6095,
      "moor": 6096,
      "mouth": 6097,
      "account": 6098,
      "manoe": 6099,
      "assa": 6100,
      "guard": 6101,
      "151": 6102,
      "harm": 6103,
      "##ongs": 6104,
      "##box": 6105,
      "commit": 6106,
      "commerc": 6107,
      "commission": 6108,
      "omn": 6109,
      "omy": 6110,
      "omorph": 6111,
      "import": 6112,
      "##spe": 6113,
      "gret": 6114,
      "##inters": 6115,
      "stead": 6116,
      "diab": 6117,
      "dioc": 6118,
      "mcd": 6119,
      "mcg": 6120,
      "##aft": 6121,
      "relat": 6122,
      "relig": 6123,
      "relie": 6124,
      "##ska": 6125,
      "avo": 6126,
      "braz": 6127,
      "brain": 6128,
      "brack": 6129,
      "##itty": 6130,
      "##lington": 6131,
      "##ateral": 6132,
      "metab": 6133,
      "surround": 6134,
      "consider": 6135,
      "remin": 6136,
      "remov": 6137,
      "remark": 6138,
      "defe": 6139,
      "igh": 6140,
      "open": 6141,
      "##ribution": 6142,
      "feat": 6143,
      "herr": 6144,
      "herald": 6145,
      "polym": 6146,
      "polyg": 6147,
      "strat": 6148,
      "strength": 6149,
      "calif": 6150,
      "##aja": 6151,
      "anders": 6152,
      "##conn": 6153,
      "##atches": 6154,
      "##atched": 6155,
      "ott": 6156,
      "tox": 6157,
      "tooth": 6158,
      "utt": 6159,
      "exped": 6160,
      "explo": 6161,
      "expans": 6162,
      "deliber": 6163,
      "##inning": 6164,
      "##engers": 6165,
      "decor": 6166,
      "depend": 6167,
      "capit": 6168,
      "extr": 6169,
      "extra": 6170,
      "distribut": 6171,
      "distinct": 6172,
      "distingu": 6173,
      "undert": 6174,
      "belg": 6175,
      "demol": 6176,
      "freed": 6177,
      "frequ": 6178,
      "caes": 6179,
      "cauc": 6180,
      "group": 6181,
      "joy": 6182,
      "morph": 6183,
      "install": 6184,
      "superf": 6185,
      "deton": 6186,
      "cyt": 6187,
      "know": 6188,
      "medi": 6189,
      "medic": 6190,
      "maced": 6191,
      "ump": 6192,
      "discip": 6193,
      "discrim": 6194,
      "curr": 6195,
      "theoph": 6196,
      "berg": 6197,
      "diver": 6198,
      "offs": 6199,
      "offic": 6200,
      "solid": 6201,
      "patric": 6202,
      "upd": 6203,
      "##come": 6204,
      "croc": 6205,
      "frust": 6206,
      "rhin": 6207,
      "illum": 6208,
      "ocar": 6209,
      "##itches": 6210,
      "constant": 6211,
      "presid": 6212,
      "preserv": 6213,
      "electro": 6214,
      "trem": 6215,
      "treas": 6216,
      "clem": 6217,
      "cheer": 6218,
      "engine": 6219,
      "awak": 6220,
      "dress": 6221,
      "sympath": 6222,
      "twent": 6223,
      "encour": 6224,
      "encycl": 6225,
      "counc": 6226,
      "couns": 6227,
      "achie": 6228,
      "domest": 6229,
      "##ounted": 6230,
      "##itzer": 6231,
      "landsc": 6232,
      "roman": 6233,
      "synch": 6234,
      "##unners": 6235,
      "craw": 6236,
      "vij": 6237,
      "promot": 6238,
      "immigr": 6239,
      "athe": 6240,
      "walk": 6241,
      "legit": 6242,
      "myc": 6243,
      "myst": 6244,
      "honey": 6245,
      "libert": 6246,
      "melod": 6247,
      "silver": 6248,
      "horiz": 6249,
      "punct": 6250,
      "##escence": 6251,
      "explor": 6252,
      "explos": 6253,
      "flour": 6254,
      "##onaut": 6255,
      "rupt": 6256,
      "rams": 6257,
      "ridd": 6258,
      "ridic": 6259,
      "narc": 6260,
      "narrow": 6261,
      "##resses": 6262,
      "escap": 6263,
      "labor": 6264,
      "semic": 6265,
      "robb": 6266,
      "argent": 6267,
      "renov": 6268,
      "summar": 6269,
      "camer": 6270,
      "fried": 6271,
      "soci": 6272,
      "social": 6273,
      "societ": 6274,
      "telec": 6275,
      "virgin": 6276,
      "shoot": 6277,
      "claim": 6278,
      "claud": 6279,
      "halluc": 6280,
      "ordin": 6281,
      "cartoon": 6282,
      "favor": 6283,
      "pelop": 6284,
      "typh": 6285,
      "innov": 6286,
      "campa": 6287,
      "griff": 6288,
      "hawai": 6289,
      "jeff": 6290,
      "life": 6291,
      "novel": 6292,
      "premier": 6293,
      "byz": 6294,
      "dimin": 6295,
      "world": 6296,
      "withd": 6297,
      "juris": 6298,
      "memor": 6299,
      "pupp": 6300,
      "prosper": 6301,
      "prosecut": 6302,
      "experiment": 6303,
      "reconc": 6304,
      "butter": 6305,
      "girl": 6306,
      "precip": 6307,
      "wheel": 6308,
      "survey": 6309,
      "constitu": 6310,
      "privile": 6311,
      "showc": 6312,
      "thorough": 6313,
      "physic": 6314,
      "caval": 6315,
      "numer": 6316,
      "##world": 6317,
      "##otype": 6318,
      "entertain": 6319,
      "mirr": 6320,
      "vigil": 6321,
      "chronic": 6322,
      "ancest": 6323,
      "beaut": 6324,
      "perpet": 6325,
      "administr": 6326,
      "botan": 6327,
      "rabb": 6328,
      "interview": 6329,
      "contempl": 6330,
      "synthes": 6331,
      "represent": 6332,
      "different": 6333,
      "material": 6334,
      "threat": 6335,
      "method": 6336,
      "microsc": 6337,
      "hospital": 6338,
      "fertil": 6339,
      "oryz": 6340,
      "period": 6341,
      "gonz": 6342,
      "##occup": 6343,
      "alloc": 6344,
      "accompan": 6345,
      "commemor": 6346,
      "##chwader": 6347,
      "rehears": 6348,
      "congrat": 6349,
      "intellig": 6350,
      "tyrann": 6351,
      "degener": 6352,
      "independ": 6353,
      "01": 6354,
      "35": 6355,
      "ai": 6356,
      "aq": 6357,
      "a3": 6358,
      "ain": 6359,
      "ats": 6360,
      "aub": 6361,
      "aram": 6362,
      "bid": 6363,
      "bard": 6364,
      "bian": 6365,
      "bia": 6366,
      "bib": 6367,
      "biz": 6368,
      "bey": 6369,
      "bord": 6370,
      "bore": 6371,
      "bets": 6372,
      "bitt": 6373,
      "bald": 6374,
      "bened": 6375,
      "byr": 6376,
      "bisc": 6377,
      "beds": 6378,
      "body": 6379,
      "cd": 6380,
      "ci": 6381,
      "cf": 6382,
      "cw": 6383,
      "ces": 6384,
      "ced": 6385,
      "cic": 6386,
      "cus": 6387,
      "cet": 6388,
      "cly": 6389,
      "cem": 6390,
      "cay": 6391,
      "cog": 6392,
      "cous": 6393,
      "cym": 6394,
      "caf": 6395,
      "capp": 6396,
      "cinn": 6397,
      "cumb": 6398,
      "cull": 6399,
      "cze": 6400,
      "dm": 6401,
      "ds": 6402,
      "dus": 6403,
      "dum": 6404,
      "dian": 6405,
      "dak": 6406,
      "dia": 6407,
      "die": 6408,
      "dry": 6409,
      "dorm": 6410,
      "dign": 6411,
      "dale": 6412,
      "denn": 6413,
      "doll": 6414,
      "dred": 6415,
      "drop": 6416,
      "drif": 6417,
      "ez": 6418,
      "eis": 6419,
      "ero": 6420,
      "ere": 6421,
      "eul": 6422,
      "ely": 6423,
      "eag": 6424,
      "eph": 6425,
      "eug": 6426,
      "eps": 6427,
      "eich": 6428,
      "erad": 6429,
      "easter": 6430,
      "fd": 6431,
      "ff": 6432,
      "fen": 6433,
      "fos": 6434,
      "fow": 6435,
      "fell": 6436,
      "fug": 6437,
      "fors": 6438,
      "food": 6439,
      "fiss": 6440,
      "fier": 6441,
      "fight": 6442,
      "feld": 6443,
      "fern": 6444,
      "fond": 6445,
      "fail": 6446,
      "fung": 6447,
      "full": 6448,
      "farn": 6449,
      "fright": 6450,
      "finger": 6451,
      "gd": 6452,
      "gj": 6453,
      "gel": 6454,
      "gol": 6455,
      "gut": 6456,
      "gem": 6457,
      "gian": 6458,
      "gend": 6459,
      "gym": 6460,
      "gond": 6461,
      "gira": 6462,
      "hing": 6463,
      "hir": 6464,
      "hud": 6465,
      "hug": 6466,
      "hect": 6467,
      "hass": 6468,
      "hort": 6469,
      "hund": 6470,
      "hick": 6471,
      "hub": 6472,
      "hik": 6473,
      "horm": 6474,
      "hern": 6475,
      "haf": 6476,
      "hamp": 6477,
      "here": 6478,
      "hitch": 6479,
      "heter": 6480,
      "hope": 6481,
      "hij": 6482,
      "ia": 6483,
      "ile": 6484,
      "iter": 6485,
      "iod": 6486,
      "ipp": 6487,
      "iber": 6488,
      "irid": 6489,
      "jen": 6490,
      "jal": 6491,
      "jor": 6492,
      "jut": 6493,
      "jab": 6494,
      "jess": 6495,
      "jak": 6496,
      "jord": 6497,
      "jux": 6498,
      "jama": 6499,
      "kor": 6500,
      "kre": 6501,
      "kom": 6502,
      "kem": 6503,
      "kab": 6504,
      "kod": 6505,
      "kell": 6506,
      "kill": 6507,
      "kens": 6508,
      "kah": 6509,
      "kov": 6510,
      "kore": 6511,
      "kitch": 6512,
      "ler": 6513,
      "lan": 6514,
      "lun": 6515,
      "los": 6516,
      "lot": 6517,
      "lia": 6518,
      "lund": 6519,
      "lah": 6520,
      "lord": 6521,
      "lans": 6522,
      "lett": 6523,
      "lau": 6524,
      "lars": 6525,
      "luth": 6526,
      "lenn": 6527,
      "laf": 6528,
      "mr": 6529,
      "ml": 6530,
      "ms": 6531,
      "mers": 6532,
      "mate": 6533,
      "mall": 6534,
      "mund": 6535,
      "maz": 6536,
      "mys": 6537,
      "most": 6538,
      "moll": 6539,
      "matt": 6540,
      "mile": 6541,
      "mott": 6542,
      "mull": 6543,
      "mourn": 6544,
      "nh": 6545,
      "nc": 6546,
      "ng": 6547,
      "ner": 6548,
      "nel": 6549,
      "nim": 6550,
      "nest": 6551,
      "nath": 6552,
      "nord": 6553,
      "oh": 6554,
      "oj": 6555,
      "ore": 6556,
      "oran": 6557,
      "ober": 6558,
      "one": 6559,
      "ops": 6560,
      "oco": 6561,
      "pion": 6562,
      "pag": 6563,
      "pod": 6564,
      "pard": 6565,
      "pine": 6566,
      "pne": 6567,
      "pyl": 6568,
      "pink": 6569,
      "pont": 6570,
      "puff": 6571,
      "pray": 6572,
      "pump": 6573,
      "puls": 6574,
      "puzz": 6575,
      "rb": 6576,
      "ras": 6577,
      "rus": 6578,
      "rut": 6579,
      "ration": 6580,
      "ria": 6581,
      "rug": 6582,
      "rust": 6583,
      "ract": 6584,
      "rans": 6585,
      "right": 6586,
      "rhe": 6587,
      "roth": 6588,
      "ripp": 6589,
      "ruff": 6590,
      "rapt": 6591,
      "ragn": 6592,
      "rasp": 6593,
      "ses": 6594,
      "sir": 6595,
      "sod": 6596,
      "sop": 6597,
      "sie": 6598,
      "sain": 6599,
      "sass": 6600,
      "sort": 6601,
      "sick": 6602,
      "sah": 6603,
      "sour": 6604,
      "sne": 6605,
      "sult": 6606,
      "saur": 6607,
      "sinc": 6608,
      "scept": 6609,
      "some": 6610,
      "sidd": 6611,
      "syll": 6612,
      "tc": 6613,
      "tz": 6614,
      "tes": 6615,
      "ting": 6616,
      "tis": 6617,
      "tac": 6618,
      "tag": 6619,
      "tod": 6620,
      "tell": 6621,
      "tip": 6622,
      "tast": 6623,
      "tick": 6624,
      "tah": 6625,
      "tric": 6626,
      "tier": 6627,
      "tyl": 6628,
      "tight": 6629,
      "tail": 6630,
      "tank": 6631,
      "toss": 6632,
      "take": 6633,
      "titan": 6634,
      "tribut": 6635,
      "tusc": 6636,
      "uz": 6637,
      "ux": 6638,
      "uter": 6639,
      "upp": 6640,
      "uts": 6641,
      "vr": 6642,
      "vit": 6643,
      "vas": 6644,
      "vil": 6645,
      "vid": 6646,
      "vag": 6647,
      "vist": 6648,
      "vand": 6649,
      "vie": 6650,
      "vend": 6651,
      "vass": 6652,
      "vind": 6653,
      "vene": 6654,
      "vamp": 6655,
      "voy": 6656,
      "vander": 6657,
      "vlad": 6658,
      "ws": 6659,
      "wing": 6660,
      "was": 6661,
      "wet": 6662,
      "wag": 6663,
      "ward": 6664,
      "wey": 6665,
      "wee": 6666,
      "weld": 6667,
      "ware": 6668,
      "waff": 6669,
      "wulf": 6670,
      "wound": 6671,
      "woman": 6672,
      "wigg": 6673,
      "witness": 6674,
      "yu": 6675,
      "yd": 6676,
      "yah": 6677,
      "yield": 6678,
      "year": 6679,
      "zn": 6680,
      "zy": 6681,
      "zer": 6682,
      "zin": 6683,
      "zan": 6684,
      "zap": 6685,
      "##eas": 6686,
      "##east": 6687,
      "##easter": 6688,
      "##run": 6689,
      "##rill": 6690,
      "##rust": 6691,
      "##rations": 6692,
      "##rating": 6693,
      "##rition": 6694,
      "##hen": 6695,
      "##hor": 6696,
      "##him": 6697,
      "##hist": 6698,
      "##hou": 6699,
      "##uper": 6700,
      "##uations": 6701,
      "##uction": 6702,
      "##nut": 6703,
      "##nie": 6704,
      "##night": 6705,
      "##aic": 6706,
      "##aid": 6707,
      "##auc": 6708,
      "##cr": 6709,
      "##cut": 6710,
      "##din": 6711,
      "##dan": 6712,
      "##ded": 6713,
      "##dot": 6714,
      "##dog": 6715,
      "##die": 6716,
      "##mat": 6717,
      "##mid": 6718,
      "##mad": 6719,
      "##mec": 6720,
      "##mith": 6721,
      "##matic": 6722,
      "##iast": 6723,
      "##ients": 6724,
      "##lay": 6725,
      "##lane": 6726,
      "##lished": 6727,
      "##yne": 6728,
      "##sburg": 6729,
      "##tw": 6730,
      "##gi": 6731,
      "##gro": 6732,
      "##gre": 6733,
      "##gard": 6734,
      "##gart": 6735,
      "##bb": 6736,
      "##bin": 6737,
      "##bes": 6738,
      "##bish": 6739,
      "##oop": 6740,
      "##ook": 6741,
      "##oys": 6742,
      "##fight": 6743,
      "##jud": 6744,
      "##wi": 6745,
      "##wan": 6746,
      "##wright": 6747,
      "##vi": 6748,
      "##vo": 6749,
      "##val": 6750,
      "##view": 6751,
      "##xton": 6752,
      "##erable": 6753,
      "##inus": 6754,
      "##instein": 6755,
      "##onal": 6756,
      "##onent": 6757,
      "##onge": 6758,
      "##onents": 6759,
      "##anim": 6760,
      "##eson": 6761,
      "##eses": 6762,
      "##esia": 6763,
      "##edia": 6764,
      "##enium": 6765,
      "##arus": 6766,
      "##ario": 6767,
      "##arians": 6768,
      "##atas": 6769,
      "##alo": 6770,
      "##alia": 6771,
      "##alach": 6772,
      "##alised": 6773,
      "##alization": 6774,
      "##ori": 6775,
      "##orter": 6776,
      "##ority": 6777,
      "##order": 6778,
      "##orities": 6779,
      "##isa": 6780,
      "##isal": 6781,
      "##isers": 6782,
      "##isive": 6783,
      "##isons": 6784,
      "##isite": 6785,
      "##iscover": 6786,
      "##icia": 6787,
      "##icious": 6788,
      "##icular": 6789,
      "##itate": 6790,
      "##itations": 6791,
      "##itary": 6792,
      "##iture": 6793,
      "##itious": 6794,
      "##itled": 6795,
      "##itudes": 6796,
      "##elm": 6797,
      "##elt": 6798,
      "##elph": 6799,
      "##elia": 6800,
      "##ionary": 6801,
      "##urer": 6802,
      "##uration": 6803,
      "##urity": 6804,
      "##urally": 6805,
      "##asian": 6806,
      "##asive": 6807,
      "##lew": 6808,
      "##leman": 6809,
      "##lements": 6810,
      "##ilers": 6811,
      "##ilian": 6812,
      "##etor": 6813,
      "##etam": 6814,
      "##eterm": 6815,
      "##ethe": 6816,
      "##etically": 6817,
      "##child": 6818,
      "##rael": 6819,
      "##rage": 6820,
      "insc": 6821,
      "inaug": 6822,
      "##repr": 6823,
      "##enter": 6824,
      "##entary": 6825,
      "##entric": 6826,
      "##amer": 6827,
      "##aming": 6828,
      "##amation": 6829,
      "ree": 6830,
      "rey": 6831,
      "rew": 6832,
      "rear": 6833,
      "reim": 6834,
      "rept": 6835,
      "reper": 6836,
      "reiss": 6837,
      "reint": 6838,
      "recept": 6839,
      "##unc": 6840,
      "##unte": 6841,
      "##unted": 6842,
      "##riers": 6843,
      "##rium": 6844,
      "##riev": 6845,
      "##ripts": 6846,
      "##uten": 6847,
      "##utnant": 6848,
      "##ulu": 6849,
      "##ulus": 6850,
      "stur": 6851,
      "station": 6852,
      "stem": 6853,
      "stag": 6854,
      "stir": 6855,
      "stap": 6856,
      "state": 6857,
      "stip": 6858,
      "strang": 6859,
      "##adian": 6860,
      "##adier": 6861,
      "##lys": 6862,
      "##acon": 6863,
      "##acing": 6864,
      "##acles": 6865,
      "##igo": 6866,
      "##uma": 6867,
      "##iven": 6868,
      "##ivated": 6869,
      "##emo": 6870,
      "##emon": 6871,
      "##empl": 6872,
      "chan": 6873,
      "chast": 6874,
      "choc": 6875,
      "chau": 6876,
      "chore": 6877,
      "charm": 6878,
      "chamb": 6879,
      "chino": 6880,
      "chief": 6881,
      "chlor": 6882,
      "##agement": 6883,
      "conte": 6884,
      "conting": 6885,
      "concept": 6886,
      "conven": 6887,
      "consequ": 6888,
      "##irl": 6889,
      "##irt": 6890,
      "##iration": 6891,
      "##irts": 6892,
      "##irmed": 6893,
      "##sters": 6894,
      "##stri": 6895,
      "##stand": 6896,
      "##stant": 6897,
      "##stream": 6898,
      "##imo": 6899,
      "##imet": 6900,
      "##imental": 6901,
      "ana": 6902,
      "anj": 6903,
      "anger": 6904,
      "anonym": 6905,
      "una": 6906,
      "unm": 6907,
      "unac": 6908,
      "unav": 6909,
      "unhe": 6910,
      "unfor": 6911,
      "uncont": 6912,
      "unrel": 6913,
      "uninter": 6914,
      "unequ": 6915,
      "##istan": 6916,
      "##isters": 6917,
      "##istence": 6918,
      "##istics": 6919,
      "##abad": 6920,
      "##abeth": 6921,
      "##odynam": 6922,
      "##essa": 6923,
      "##essive": 6924,
      "##essions": 6925,
      "enqu": 6926,
      "enact": 6927,
      "enjoy": 6928,
      "shin": 6929,
      "shan": 6930,
      "shat": 6931,
      "shre": 6932,
      "sham": 6933,
      "shif": 6934,
      "shield": 6935,
      "shear": 6936,
      "shakes": 6937,
      "deuts": 6938,
      "##cke": 6939,
      "##antage": 6940,
      "alc": 6941,
      "alo": 6942,
      "alv": 6943,
      "ales": 6944,
      "alas": 6945,
      "alter": 6946,
      "alth": 6947,
      "alph": 6948,
      "alco": 6949,
      "arr": 6950,
      "arj": 6951,
      "arp": 6952,
      "arte": 6953,
      "armen": 6954,
      "proper": 6955,
      "##aku": 6956,
      "exempt": 6957,
      "exchang": 6958,
      "exempl": 6959,
      "##oping": 6960,
      "##ople": 6961,
      "##opods": 6962,
      "##opotam": 6963,
      "sug": 6964,
      "suit": 6965,
      "spar": 6966,
      "spee": 6967,
      "space": 6968,
      "spont": 6969,
      "thin": 6970,
      "thom": 6971,
      "thri": 6972,
      "throw": 6973,
      "thank": 6974,
      "thres": 6975,
      "think": 6976,
      "though": 6977,
      "##quer": 6978,
      "##quin": 6979,
      "##quar": 6980,
      "##qual": 6981,
      "##aper": 6982,
      "##ellan": 6983,
      "##ellers": 6984,
      "##oust": 6985,
      "dish": 6986,
      "disg": 6987,
      "displ": 6988,
      "disob": 6989,
      "disco": 6990,
      "disgu": 6991,
      "dischar": 6992,
      "##aval": 6993,
      "##avian": 6994,
      "##iper": 6995,
      "compress": 6996,
      "##illes": 6997,
      "cof": 6998,
      "coal": 6999,
      "coul": 7000,
      "coff": 7001,
      "coast": 7002,
      "cook": 7003,
      "##enda": 7004,
      "##iful": 7005,
      "##uda": 7006,
      "adam": 7007,
      "adul": 7008,
      "##ugal": 7009,
      "seb": 7010,
      "seed": 7011,
      "seem": 7012,
      "seap": 7013,
      "sept": 7014,
      "season": 7015,
      "seek": 7016,
      "##loid": 7017,
      "##izations": 7018,
      "##ectively": 7019,
      "lee": 7020,
      "lep": 7021,
      "leav": 7022,
      "ame": 7023,
      "amer": 7024,
      "amate": 7025,
      "ambo": 7026,
      "aster": 7027,
      "##asses": 7028,
      "##assed": 7029,
      "##assic": 7030,
      "atm": 7031,
      "##manship": 7032,
      "##plan": 7033,
      "scav": 7034,
      "scram": 7035,
      "scrib": 7036,
      "scutt": 7037,
      "scream": 7038,
      "emin": 7039,
      "emot": 7040,
      "empt": 7041,
      "emerg": 7042,
      "nep": 7043,
      "need": 7044,
      "never": 7045,
      "roch": 7046,
      "rook": 7047,
      "##ighth": 7048,
      "prest": 7049,
      "pruss": 7050,
      "##icker": 7051,
      "##icking": 7052,
      "##uba": 7053,
      "##uber": 7054,
      "##ublic": 7055,
      "bew": 7056,
      "##acker": 7057,
      "pla": 7058,
      "plut": 7059,
      "plag": 7060,
      "place": 7061,
      "##anga": 7062,
      "##athered": 7063,
      "els": 7064,
      "elph": 7065,
      "eliz": 7066,
      "qui": 7067,
      "question": 7068,
      "abn": 7069,
      "aber": 7070,
      "abra": 7071,
      "abst": 7072,
      "pher": 7073,
      "phal": 7074,
      "phill": 7075,
      "marc": 7076,
      "marl": 7077,
      "marian": 7078,
      "marath": 7079,
      "##ecess": 7080,
      "##ova": 7081,
      "##ovsky": 7082,
      "##rymen": 7083,
      "##ikes": 7084,
      "##tegr": 7085,
      "hex": 7086,
      "heid": 7087,
      "health": 7088,
      "##awks": 7089,
      "##berger": 7090,
      "boul": 7091,
      "books": 7092,
      "bohem": 7093,
      "##achment": 7094,
      "flot": 7095,
      "fluct": 7096,
      "carm": 7097,
      "carac": 7098,
      "##neg": 7099,
      "park": 7100,
      "fores": 7101,
      "forth": 7102,
      "force": 7103,
      "subord": 7104,
      "subsp": 7105,
      "subject": 7106,
      "subgen": 7107,
      "blanc": 7108,
      "cold": 7109,
      "color": 7110,
      "colum": 7111,
      "colour": 7112,
      "interd": 7113,
      "interp": 7114,
      "intercept": 7115,
      "interfer": 7116,
      "interchang": 7117,
      "isot": 7118,
      "isab": 7119,
      "issu": 7120,
      "perfor": 7121,
      "preca": 7122,
      "pregn": 7123,
      "recur": 7124,
      "reconn": 7125,
      "recover": 7126,
      "recuper": 7127,
      "agu": 7128,
      "agar": 7129,
      "##oba": 7130,
      "##obil": 7131,
      "bres": 7132,
      "brist": 7133,
      "brill": 7134,
      "britt": 7135,
      "traw": 7136,
      "tract": 7137,
      "traff": 7138,
      "travers": 7139,
      "whal": 7140,
      "whitt": 7141,
      "intro": 7142,
      "intest": 7143,
      "intrig": 7144,
      "introd": 7145,
      "intox": 7146,
      "contain": 7147,
      "contact": 7148,
      "monarch": 7149,
      "##anny": 7150,
      "##anned": 7151,
      "obt": 7152,
      "##ucer": 7153,
      "induct": 7154,
      "schu": 7155,
      "schiz": 7156,
      "scholar": 7157,
      "onym": 7158,
      "##pse": 7159,
      "##pson": 7160,
      "appla": 7161,
      "baron": 7162,
      "sou": 7163,
      "##yss": 7164,
      "##ughs": 7165,
      "##ughton": 7166,
      "mead": 7167,
      "##iums": 7168,
      "comput": 7169,
      "compens": 7170,
      "compound": 7171,
      "compreh": 7172,
      "itt": 7173,
      "oll": 7174,
      "olig": 7175,
      "correl": 7176,
      "slow": 7177,
      "##iche": 7178,
      "##ylvan": 7179,
      "look": 7180,
      "overc": 7181,
      "overhe": 7182,
      "overfl": 7183,
      "overwhel": 7184,
      "##igns": 7185,
      "swed": 7186,
      "antar": 7187,
      "antis": 7188,
      "antic": 7189,
      "antib": 7190,
      "antio": 7191,
      "##ithm": 7192,
      "crist": 7193,
      "crush": 7194,
      "##coe": 7195,
      "acet": 7196,
      "acid": 7197,
      "moz": 7198,
      "moon": 7199,
      "molec": 7200,
      "incon": 7201,
      "incar": 7202,
      "incap": 7203,
      "accur": 7204,
      "manz": 7205,
      "assy": 7206,
      "assum": 7207,
      "assim": 7208,
      "assist": 7209,
      "assert": 7210,
      "guad": 7211,
      "guild": 7212,
      "##onduct": 7213,
      "infr": 7214,
      "infer": 7215,
      "harb": 7216,
      "commod": 7217,
      "impe": 7218,
      "impass": 7219,
      "impact": 7220,
      "impair": 7221,
      "implement": 7222,
      "weigh": 7223,
      "webs": 7224,
      "wealth": 7225,
      "grat": 7226,
      "icon": 7227,
      "##atorial": 7228,
      "stef": 7229,
      "step": 7230,
      "ull": 7231,
      "uls": 7232,
      "mcgu": 7233,
      "##itioning": 7234,
      "grap": 7235,
      "pear": 7236,
      "peck": 7237,
      "hyper": 7238,
      "rele": 7239,
      "relax": 7240,
      "avi": 7241,
      "aven": 7242,
      "brah": 7243,
      "apat": 7244,
      "apoc": 7245,
      "apost": 7246,
      "event": 7247,
      "evangel": 7248,
      "poor": 7249,
      "pound": 7250,
      "poison": 7251,
      "desper": 7252,
      "trust": 7253,
      "trump": 7254,
      "##gren": 7255,
      "urb": 7256,
      "urban": 7257,
      "surr": 7258,
      "surre": 7259,
      "##righ": 7260,
      "consolid": 7261,
      "glam": 7262,
      "glad": 7263,
      "remar": 7264,
      "remod": 7265,
      "remind": 7266,
      "remix": 7267,
      "defens": 7268,
      "brom": 7269,
      "brook": 7270,
      "##00th": 7271,
      "republ": 7272,
      "republic": 7273,
      "regener": 7274,
      "retal": 7275,
      "retre": 7276,
      "retriev": 7277,
      "confer": 7278,
      "config": 7279,
      "conform": 7280,
      "confront": 7281,
      "##aurus": 7282,
      "oss": 7283,
      "osph": 7284,
      "feed": 7285,
      "feud": 7286,
      "hoff": 7287,
      "herz": 7288,
      "polar": 7289,
      "polic": 7290,
      "polyn": 7291,
      "##otta": 7292,
      "irreg": 7293,
      "strugg": 7294,
      "calib": 7295,
      "##anka": 7296,
      "andre": 7297,
      "androm": 7298,
      "smok": 7299,
      "smugg": 7300,
      "##arma": 7301,
      "otyp": 7302,
      "insign": 7303,
      "insurg": 7304,
      "tough": 7305,
      "expect": 7306,
      "geomet": 7307,
      "grey": 7308,
      "great": 7309,
      "##lett": 7310,
      "buoy": 7311,
      "redes": 7312,
      "##osex": 7313,
      "depri": 7314,
      "deploy": 7315,
      "extract": 7316,
      "extrav": 7317,
      "magdal": 7318,
      "##ilda": 7319,
      "embry": 7320,
      "embark": 7321,
      "embarr": 7322,
      "distract": 7323,
      "##egu": 7324,
      "##arez": 7325,
      "##ussy": 7326,
      "revis": 7327,
      "underm": 7328,
      "belt": 7329,
      "belong": 7330,
      "democr": 7331,
      "epis": 7332,
      "epist": 7333,
      "episc": 7334,
      "caut": 7335,
      "gros": 7336,
      "morg": 7337,
      "allot": 7338,
      "aston": 7339,
      "astrol": 7340,
      "ogen": 7341,
      "instinct": 7342,
      "##ulls": 7343,
      "unders": 7344,
      "supern": 7345,
      "##ographer": 7346,
      "##ographical": 7347,
      "medall": 7348,
      "serp": 7349,
      "serial": 7350,
      "devast": 7351,
      "discour": 7352,
      "airstri": 7353,
      "crem": 7354,
      "##arrell": 7355,
      "turk": 7356,
      "misunderst": 7357,
      "palest": 7358,
      "solic": 7359,
      "patrol": 7360,
      "fring": 7361,
      "fratern": 7362,
      "rhodes": 7363,
      "##iffe": 7364,
      "##iffs": 7365,
      "endors": 7366,
      "afric": 7367,
      "muse": 7368,
      "triang": 7369,
      "presum": 7370,
      "actin": 7371,
      "maid": 7372,
      "simp": 7373,
      "similar": 7374,
      "propos": 7375,
      "clean": 7376,
      "usur": 7377,
      "##lessly": 7378,
      "check": 7379,
      "affirm": 7380,
      "drink": 7381,
      "helm": 7382,
      "help": 7383,
      "restrict": 7384,
      "symph": 7385,
      "symmet": 7386,
      "##utionary": 7387,
      "azz": 7388,
      "franch": 7389,
      "note": 7390,
      "notor": 7391,
      "partn": 7392,
      "##uckle": 7393,
      "encir": 7394,
      "##owering": 7395,
      "dispar": 7396,
      "dispos": 7397,
      "bloom": 7398,
      "matth": 7399,
      "##ounts": 7400,
      "##ounced": 7401,
      "equival": 7402,
      "humili": 7403,
      "rael": 7404,
      "volunte": 7405,
      "##eze": 7406,
      "crafts": 7407,
      "prompt": 7408,
      "immers": 7409,
      "athlet": 7410,
      "border": 7411,
      "khal": 7412,
      "priest": 7413,
      "ayy": 7414,
      "ferr": 7415,
      "convey": 7416,
      "convinc": 7417,
      "collaps": 7418,
      "cataly": 7419,
      "eleg": 7420,
      "galile": 7421,
      "##parts": 7422,
      "suppress": 7423,
      "supplement": 7424,
      "dissip": 7425,
      "second": 7426,
      "backst": 7427,
      "torped": 7428,
      "temp": 7429,
      "tempt": 7430,
      "templ": 7431,
      "tempor": 7432,
      "##pool": 7433,
      "furth": 7434,
      "predomin": 7435,
      "banqu": 7436,
      "banks": 7437,
      "pleas": 7438,
      "##iliar": 7439,
      "samar": 7440,
      "semin": 7441,
      "signific": 7442,
      "##racy": 7443,
      "condemn": 7444,
      "respond": 7445,
      "benz": 7446,
      "deriv": 7447,
      "faith": 7448,
      "noct": 7449,
      "oppress": 7450,
      "opportun": 7451,
      "##borne": 7452,
      "philipp": 7453,
      "philanth": 7454,
      "cephal": 7455,
      "dupl": 7456,
      "locom": 7457,
      "voor": 7458,
      "voiv": 7459,
      "##ciation": 7460,
      "##rified": 7461,
      "copy": 7462,
      "rodrig": 7463,
      "telev": 7464,
      "telesc": 7465,
      "rebu": 7466,
      "rebell": 7467,
      "unpro": 7468,
      "boliv": 7469,
      "massac": 7470,
      "nomen": 7471,
      "pyth": 7472,
      "pyram": 7473,
      "postp": 7474,
      "##riptions": 7475,
      "compliment": 7476,
      "psychiat": 7477,
      "aeros": 7478,
      "destroy": 7479,
      "frag": 7480,
      "fragment": 7481,
      "goldf": 7482,
      "mathemat": 7483,
      "cloud": 7484,
      "griev": 7485,
      "lyric": 7486,
      "publish": 7487,
      "reinst": 7488,
      "absol": 7489,
      "fortun": 7490,
      "henri": 7491,
      "slee": 7492,
      "sleep": 7493,
      "unfav": 7494,
      "unfold": 7495,
      "football": 7496,
      "hydrox": 7497,
      "tao": 7498,
      "waters": 7499,
      "standard": 7500,
      "supers": 7501,
      "suprem": 7502,
      "speed": 7503,
      "birth": 7504,
      "cinemat": 7505,
      "every": 7506,
      "falk": 7507,
      "municip": 7508,
      "sloven": 7509,
      "veloc": 7510,
      "##marine": 7511,
      "experi": 7512,
      "ornith": 7513,
      "substant": 7514,
      "baum": 7515,
      "bombard": 7516,
      "vacc": 7517,
      "##iciency": 7518,
      "approxim": 7519,
      "constitution": 7520,
      "candid": 7521,
      "paper": 7522,
      "wolver": 7523,
      "##break": 7524,
      "enlar": 7525,
      "arbit": 7526,
      "disappear": 7527,
      "adjust": 7528,
      "terror": 7529,
      "bosn": 7530,
      "figur": 7531,
      "shipw": 7532,
      "fabric": 7533,
      "freder": 7534,
      "kidn": 7535,
      "neighbor": 7536,
      "neighbour": 7537,
      "platform": 7538,
      "appreh": 7539,
      "godd": 7540,
      "renew": 7541,
      "towns": 7542,
      "aristocr": 7543,
      "amphib": 7544,
      "carniv": 7545,
      "contempor": 7546,
      "middle": 7547,
      "euph": 7548,
      "mixt": 7549,
      "ninet": 7550,
      "paleont": 7551,
      "spirit": 7552,
      "interpret": 7553,
      "industrial": 7554,
      "georg": 7555,
      "diplom": 7556,
      "hierarch": 7557,
      "ineff": 7558,
      "rehabil": 7559,
      "stereotyp": 7560,
      "prostit": 7561,
      "neutral": 7562,
      "intimid": 7563,
      "filmm": 7564,
      "satisf": 7565,
      "aesth": 7566,
      "dread": 7567,
      "gyps": 7568,
      "gosp": 7569,
      "hutch": 7570,
      "sustain": 7571,
      "##corrh": 7572,
      "endeav": 7573,
      "disintegr": 7574,
      "phylogen": 7575,
      "manifest": 7576,
      "herbiv": 7577,
      "establish": 7578,
      "deterior": 7579,
      "reconstruct": 7580,
      "cripp": 7581,
      "church": 7582,
      "thessal": 7583,
      "disagre": 7584,
      "coupl": 7585,
      "subdiv": 7586,
      "guarant": 7587,
      "architect": 7588,
      "autobi": 7589,
      "maneuver": 7590,
      "lanthan": 7591,
      "pseud": 7592,
      "##olithic": 7593,
      "uniform": 7594,
      "encompass": 7595,
      "succe": 7596,
      "asymmet": 7597,
      "neptun": 7598,
      "parliament": 7599,
      "intellect": 7600,
      "controvers": 7601,
      "manoeuv": 7602,
      "californ": 7603,
      "extrater": 7604,
      "crocod": 7605,
      "synchron": 7606,
      "byzant": 7607,
      "withdraw": 7608,
      "czech": 7609,
      "juxt": 7610,
      "pneum": 7611,
      "episcop": 7612,
      "philanthrop": 7613,
      "...": 7614,
      "2o": 7615,
      "29": 7616,
      "28": 7617,
      "26": 7618,
      "22": 7619,
      "25": 7620,
      "32": 7621,
      "49": 7622,
      "76": 7623,
      "87": 7624,
      "90": 7625,
      "aa": 7626,
      "aar": 7627,
      "aro": 7628,
      "aid": 7629,
      "ater": 7630,
      "aiv": 7631,
      "aik": 7632,
      "age": 7633,
      "ains": 7634,
      "aks": 7635,
      "ave": 7636,
      "auk": 7637,
      "award": 7638,
      "bn": 7639,
      "bs": 7640,
      "bing": 7641,
      "bit": 7642,
      "bam": 7643,
      "bun": 7644,
      "bum": 7645,
      "bess": 7646,
      "best": 7647,
      "bav": 7648,
      "bie": 7649,
      "bain": 7650,
      "boc": 7651,
      "bok": 7652,
      "bust": 7653,
      "bind": 7654,
      "baz": 7655,
      "byn": 7656,
      "bism": 7657,
      "bash": 7658,
      "bram": 7659,
      "bold": 7660,
      "bai": 7661,
      "buk": 7662,
      "bats": 7663,
      "bung": 7664,
      "base": 7665,
      "bonn": 7666,
      "bunn": 7667,
      "bows": 7668,
      "bests": 7669,
      "bourn": 7670,
      "bitter": 7671,
      "bumble": 7672,
      "bicy": 7673,
      "cz": 7674,
      "cen": 7675,
      "cis": 7676,
      "cil": 7677,
      "cess": 7678,
      "cate": 7679,
      "city": 7680,
      "cey": 7681,
      "cec": 7682,
      "cact": 7683,
      "cram": 7684,
      "cair": 7685,
      "catt": 7686,
      "cai": 7687,
      "cerv": 7688,
      "cinc": 7689,
      "coss": 7690,
      "cement": 7691,
      "crom": 7692,
      "cush": 7693,
      "crad": 7694,
      "caster": 7695,
      "casc": 7696,
      "came": 7697,
      "cogn": 7698,
      "crown": 7699,
      "dd": 7700,
      "df": 7701,
      "dot": 7702,
      "dess": 7703,
      "dip": 7704,
      "dill": 7705,
      "dall": 7706,
      "dund": 7707,
      "dart": 7708,
      "dang": 7709,
      "dust": 7710,
      "dire": 7711,
      "danc": 7712,
      "dau": 7713,
      "derm": 7714,
      "dup": 7715,
      "duck": 7716,
      "dadd": 7717,
      "dwell": 7718,
      "drown": 7719,
      "drey": 7720,
      "dwar": 7721,
      "diction": 7722,
      "danger": 7723,
      "eh": 7724,
      "ef": 7725,
      "ek": 7726,
      "eat": 7727,
      "eus": 7728,
      "eun": 7729,
      "ead": 7730,
      "eter": 7731,
      "eust": 7732,
      "ete": 7733,
      "eins": 7734,
      "euc": 7735,
      "eight": 7736,
      "eco": 7737,
      "eile": 7738,
      "euk": 7739,
      "eald": 7740,
      "eject": 7741,
      "etern": 7742,
      "egg": 7743,
      "erect": 7744,
      "egy": 7745,
      "fs": 7746,
      "fon": 7747,
      "fed": 7748,
      "fing": 7749,
      "fand": 7750,
      "fod": 7751,
      "fay": 7752,
      "fill": 7753,
      "ford": 7754,
      "fins": 7755,
      "ferm": 7756,
      "frig": 7757,
      "face": 7758,
      "fink": 7759,
      "fare": 7760,
      "font": 7761,
      "funk": 7762,
      "frog": 7763,
      "father": 7764,
      "fimb": 7765,
      "fellow": 7766,
      "gm": 7767,
      "gp": 7768,
      "ged": 7769,
      "gat": 7770,
      "ging": 7771,
      "gis": 7772,
      "gur": 7773,
      "gul": 7774,
      "got": 7775,
      "gad": 7776,
      "gig": 7777,
      "gum": 7778,
      "gand": 7779,
      "gog": 7780,
      "gav": 7781,
      "gif": 7782,
      "gain": 7783,
      "gub": 7784,
      "gord": 7785,
      "gne": 7786,
      "gins": 7787,
      "gann": 7788,
      "grow": 7789,
      "gert": 7790,
      "goss": 7791,
      "garn": 7792,
      "gunn": 7793,
      "game": 7794,
      "gather": 7795,
      "goli": 7796,
      "hd": 7797,
      "hl": 7798,
      "hs": 7799,
      "hain": 7800,
      "hens": 7801,
      "hok": 7802,
      "hour": 7803,
      "hust": 7804,
      "hood": 7805,
      "holog": 7806,
      "hash": 7807,
      "hau": 7808,
      "hond": 7809,
      "henn": 7810,
      "hunt": 7811,
      "hank": 7812,
      "hels": 7813,
      "huss": 7814,
      "hano": 7815,
      "hersh": 7816,
      "hyster": 7817,
      "ix": 7818,
      "iq": 7819,
      "iat": 7820,
      "iet": 7821,
      "ient": 7822,
      "ios": 7823,
      "ily": 7824,
      "iran": 7825,
      "ips": 7826,
      "igr": 7827,
      "iew": 7828,
      "ja": 7829,
      "jed": 7830,
      "jing": 7831,
      "jas": 7832,
      "jol": 7833,
      "jum": 7834,
      "jim": 7835,
      "jap": 7836,
      "jens": 7837,
      "joc": 7838,
      "jah": 7839,
      "jans": 7840,
      "jaz": 7841,
      "jock": 7842,
      "jung": 7843,
      "jaff": 7844,
      "jump": 7845,
      "junk": 7846,
      "josh": 7847,
      "jagu": 7848,
      "ks": 7849,
      "kg": 7850,
      "kis": 7851,
      "kle": 7852,
      "kun": 7853,
      "kul": 7854,
      "kot": 7855,
      "kum": 7856,
      "kow": 7857,
      "kant": 7858,
      "kard": 7859,
      "kak": 7860,
      "kop": 7861,
      "kie": 7862,
      "kend": 7863,
      "kok": 7864,
      "kang": 7865,
      "kru": 7866,
      "kry": 7867,
      "kik": 7868,
      "kron": 7869,
      "kob": 7870,
      "kings": 7871,
      "kier": 7872,
      "kash": 7873,
      "kett": 7874,
      "kling": 7875,
      "kipp": 7876,
      "kink": 7877,
      "kou": 7878,
      "komm": 7879,
      "kuz": 7880,
      "keys": 7881,
      "lr": 7882,
      "lh": 7883,
      "ln": 7884,
      "lt": 7885,
      "lb": 7886,
      "lal": 7887,
      "lion": 7888,
      "lur": 7889,
      "lil": 7890,
      "lop": 7891,
      "lill": 7892,
      "lach": 7893,
      "liss": 7894,
      "lash": 7895,
      "lup": 7896,
      "lair": 7897,
      "lamp": 7898,
      "linc": 7899,
      "loss": 7900,
      "linn": 7901,
      "lung": 7902,
      "lyr": 7903,
      "lamb": 7904,
      "luck": 7905,
      "luz": 7906,
      "lament": 7907,
      "like": 7908,
      "linger": 7909,
      "lights": 7910,
      "mt": 7911,
      "mig": 7912,
      "mab": 7913,
      "mce": 7914,
      "mard": 7915,
      "map": 7916,
      "mies": 7917,
      "mast": 7918,
      "mour": 7919,
      "maw": 7920,
      "mee": 7921,
      "manc": 7922,
      "mood": 7923,
      "morm": 7924,
      "mits": 7925,
      "moth": 7926,
      "meng": 7927,
      "mald": 7928,
      "morn": 7929,
      "mild": 7930,
      "muss": 7931,
      "made": 7932,
      "much": 7933,
      "mush": 7934,
      "make": 7935,
      "madd": 7936,
      "mason": 7937,
      "mental": 7938,
      "mission": 7939,
      "mih": 7940,
      "mito": 7941,
      "mention": 7942,
      "mother": 7943,
      "meyer": 7944,
      "nr": 7945,
      "nl": 7946,
      "nf": 7947,
      "nw": 7948,
      "nes": 7949,
      "ned": 7950,
      "nir": 7951,
      "nab": 7952,
      "nant": 7953,
      "nell": 7954,
      "nie": 7955,
      "nib": 7956,
      "niz": 7957,
      "nass": 7958,
      "nort": 7959,
      "nons": 7960,
      "nans": 7961,
      "niss": 7962,
      "none": 7963,
      "noth": 7964,
      "nai": 7965,
      "nerv": 7966,
      "nih": 7967,
      "nemat": 7968,
      "nether": 7969,
      "niger": 7970,
      "oe": 7971,
      "oer": 7972,
      "oed": 7973,
      "ole": 7974,
      "oul": 7975,
      "oak": 7976,
      "ound": 7977,
      "oder": 7978,
      "ote": 7979,
      "oft": 7980,
      "oreg": 7981,
      "ours": 7982,
      "oste": 7983,
      "orang": 7984,
      "ohl": 7985,
      "pes": 7986,
      "pus": 7987,
      "ply": 7988,
      "pig": 7989,
      "piv": 7990,
      "pir": 7991,
      "pand": 7992,
      "pess": 7993,
      "pest": 7994,
      "pant": 7995,
      "pak": 7996,
      "plo": 7997,
      "pach": 7998,
      "page": 7999,
      "pich": 8000,
      "pup": 8001,
      "pair": 8002,
      "pue": 8003,
      "peng": 8004,
      "porn": 8005,
      "pemb": 8006,
      "pasc": 8007,
      "pto": 8008,
      "ports": 8009,
      "piet": 8010,
      "pige": 8011,
      "qa": 8012,
      "rc": 8013,
      "rw": 8014,
      "rent": 8015,
      "ries": 8016,
      "rall": 8017,
      "rast": 8018,
      "raw": 8019,
      "rating": 8020,
      "rings": 8021,
      "rally": 8022,
      "rup": 8023,
      "rale": 8024,
      "race": 8025,
      "rana": 8026,
      "ramb": 8027,
      "rena": 8028,
      "rogn": 8029,
      "sr": 8030,
      "ss": 8031,
      "sic": 8032,
      "siv": 8033,
      "sif": 8034,
      "sang": 8035,
      "sov": 8036,
      "sach": 8037,
      "sans": 8038,
      "sail": 8039,
      "sold": 8040,
      "sapp": 8041,
      "sele": 8042,
      "somb": 8043,
      "saff": 8044,
      "sonn": 8045,
      "sunn": 8046,
      "somm": 8047,
      "siber": 8048,
      "sieg": 8049,
      "srin": 8050,
      "tl": 8051,
      "tv": 8052,
      "tic": 8053,
      "tog": 8054,
      "tect": 8055,
      "tain": 8056,
      "tec": 8057,
      "tik": 8058,
      "table": 8059,
      "taw": 8060,
      "tron": 8061,
      "tiss": 8062,
      "tup": 8063,
      "tamp": 8064,
      "tai": 8065,
      "trim": 8066,
      "tink": 8067,
      "torn": 8068,
      "tung": 8069,
      "tarn": 8070,
      "trol": 8071,
      "tyr": 8072,
      "tamb": 8073,
      "tonn": 8074,
      "tuls": 8075,
      "tourn": 8076,
      "tiber": 8077,
      "uh": 8078,
      "uy": 8079,
      "uf": 8080,
      "uv": 8081,
      "uth": 8082,
      "ucl": 8083,
      "upr": 8084,
      "vh": 8085,
      "vn": 8086,
      "von": 8087,
      "ving": 8088,
      "vom": 8089,
      "vot": 8090,
      "vess": 8091,
      "vow": 8092,
      "vard": 8093,
      "vap": 8094,
      "vall": 8095,
      "vain": 8096,
      "vort": 8097,
      "vick": 8098,
      "vold": 8099,
      "vitt": 8100,
      "visc": 8101,
      "vez": 8102,
      "wi": 8103,
      "won": 8104,
      "wic": 8105,
      "wur": 8106,
      "wra": 8107,
      "went": 8108,
      "wir": 8109,
      "wand": 8110,
      "wess": 8111,
      "wies": 8112,
      "wip": 8113,
      "wine": 8114,
      "wain": 8115,
      "wart": 8116,
      "wins": 8117,
      "wings": 8118,
      "wals": 8119,
      "wich": 8120,
      "worm": 8121,
      "wars": 8122,
      "wax": 8123,
      "woll": 8124,
      "watt": 8125,
      "witt": 8126,
      "wield": 8127,
      "wink": 8128,
      "witch": 8129,
      "wides": 8130,
      "welling": 8131,
      "wander": 8132,
      "words": 8133,
      "xin": 8134,
      "ym": 8135,
      "yt": 8136,
      "yon": 8137,
      "yar": 8138,
      "yus": 8139,
      "yst": 8140,
      "yog": 8141,
      "yak": 8142,
      "yous": 8143,
      "yug": 8144,
      "yang": 8145,
      "yellow": 8146,
      "zu": 8147,
      "zw": 8148,
      "zed": 8149,
      "zen": 8150,
      "zam": 8151,
      "zig": 8152,
      "zag": 8153,
      "zir": 8154,
      "zomb": 8155,
      "zimb": 8156,
      "zyg": 8157,
      "zieg": 8158,
      "##eo": 8159,
      "##ears": 8160,
      "##rish": 8161,
      "##riss": 8162,
      "##rina": 8163,
      "##rase": 8164,
      "##rington": 8165,
      "##hal": 8166,
      "##here": 8167,
      "##hanna": 8168,
      "##hawks": 8169,
      "##uj": 8170,
      "##uing": 8171,
      "##uate": 8172,
      "##uity": 8173,
      "##uish": 8174,
      "##uating": 8175,
      "##uits": 8176,
      "##ulet": 8177,
      "##uana": 8178,
      "##no": 8179,
      "##nor": 8180,
      "##nell": 8181,
      "##note": 8182,
      "##ais": 8183,
      "##aul": 8184,
      "##aver": 8185,
      "##cur": 8186,
      "##col": 8187,
      "##card": 8188,
      "##cious": 8189,
      "##cement": 8190,
      "##case": 8191,
      "##cery": 8192,
      "##des": 8193,
      "##dom": 8194,
      "##dam": 8195,
      "##ders": 8196,
      "##dock": 8197,
      "##min": 8198,
      "##mes": 8199,
      "##mus": 8200,
      "##mate": 8201,
      "##mill": 8202,
      "##mund": 8203,
      "##mind": 8204,
      "##mates": 8205,
      "##mere": 8206,
      "##iop": 8207,
      "##iour": 8208,
      "##iations": 8209,
      "##iries": 8210,
      "##iology": 8211,
      "##lar": 8212,
      "##lig": 8213,
      "##lia": 8214,
      "##lined": 8215,
      "##lights": 8216,
      "##life": 8217,
      "##yx": 8218,
      "##yre": 8219,
      "##yce": 8220,
      "##sby": 8221,
      "##gic": 8222,
      "##gas": 8223,
      "##gent": 8224,
      "##gun": 8225,
      "##gio": 8226,
      "##gets": 8227,
      "##gement": 8228,
      "##grim": 8229,
      "##bers": 8230,
      "##bard": 8231,
      "##bell": 8232,
      "##bons": 8233,
      "##bles": 8234,
      "##bled": 8235,
      "##bred": 8236,
      "##brid": 8237,
      "##base": 8238,
      "##oan": 8239,
      "##oed": 8240,
      "##oic": 8241,
      "##oul": 8242,
      "##oire": 8243,
      "##zes": 8244,
      "##zier": 8245,
      "##zko": 8246,
      "##90s": 8247,
      "##fly": 8248,
      "##fill": 8249,
      "##fast": 8250,
      "##fted": 8251,
      "##fore": 8252,
      "##face": 8253,
      "##father": 8254,
      "##function": 8255,
      "##80s": 8256,
      "##60s": 8257,
      "##ju": 8258,
      "##jug": 8259,
      "##wig": 8260,
      "##wide": 8261,
      "##wise": 8262,
      "##weg": 8263,
      "##ware": 8264,
      "##woman": 8265,
      "##vy": 8266,
      "##von": 8267,
      "##vet": 8268,
      "##vol": 8269,
      "##vir": 8270,
      "##via": 8271,
      "##kers": 8272,
      "##keep": 8273,
      "##kowski": 8274,
      "##pan": 8275,
      "##pro": 8276,
      "##pow": 8277,
      "##pop": 8278,
      "##ploy": 8279,
      "##xes": 8280,
      "##30s": 8281,
      "##70s": 8282,
      "##erly": 8283,
      "##erie": 8284,
      "##erman": 8285,
      "##erting": 8286,
      "##eratops": 8287,
      "##inqu": 8288,
      "##onen": 8289,
      "##anic": 8290,
      "##anish": 8291,
      "##anche": 8292,
      "##esa": 8293,
      "##esy": 8294,
      "##esham": 8295,
      "##edo": 8296,
      "##enh": 8297,
      "##enas": 8298,
      "##enos": 8299,
      "##enly": 8300,
      "##enary": 8301,
      "##enne": 8302,
      "##enby": 8303,
      "##arra": 8304,
      "##arts": 8305,
      "##arious": 8306,
      "##atz": 8307,
      "##atra": 8308,
      "##atist": 8309,
      "##atural": 8310,
      "##alu": 8311,
      "##alis": 8312,
      "##alian": 8313,
      "##aline": 8314,
      "##alore": 8315,
      "##alistic": 8316,
      "##alties": 8317,
      "##oros": 8318,
      "##orio": 8319,
      "##orously": 8320,
      "##isy": 8321,
      "##iso": 8322,
      "##isch": 8323,
      "##isition": 8324,
      "##icon": 8325,
      "##icle": 8326,
      "##icus": 8327,
      "##ician": 8328,
      "##icable": 8329,
      "##icting": 8330,
      "##icism": 8331,
      "##icide": 8332,
      "##iti": 8333,
      "##itus": 8334,
      "##itating": 8335,
      "##itely": 8336,
      "##itage": 8337,
      "##itals": 8338,
      "##elo": 8339,
      "##eles": 8340,
      "##elic": 8341,
      "##eley": 8342,
      "##elius": 8343,
      "##urst": 8344,
      "##urely": 8345,
      "##urance": 8346,
      "##urai": 8347,
      "##urities": 8348,
      "##asy": 8349,
      "##asis": 8350,
      "##asim": 8351,
      "##asons": 8352,
      "##asaki": 8353,
      "##lefield": 8354,
      "##lemen": 8355,
      "##road": 8356,
      "##rosc": 8357,
      "##roft": 8358,
      "##roke": 8359,
      "##usa": 8360,
      "##usal": 8361,
      "##usts": 8362,
      "##iler": 8363,
      "##ilis": 8364,
      "##ilies": 8365,
      "##ilated": 8366,
      "##iloc": 8367,
      "##eta": 8368,
      "##etes": 8369,
      "##etts": 8370,
      "##etical": 8371,
      "##etyp": 8372,
      "##olor": 8373,
      "##olam": 8374,
      "##olved": 8375,
      "##olitan": 8376,
      "##chen": 8377,
      "##chers": 8378,
      "##chond": 8379,
      "##rab": 8380,
      "##race": 8381,
      "##raine": 8382,
      "##rays": 8383,
      "##rade": 8384,
      "##raction": 8385,
      "ino": 8386,
      "ink": 8387,
      "ined": 8388,
      "inch": 8389,
      "inad": 8390,
      "inert": 8391,
      "ingr": 8392,
      "invers": 8393,
      "inev": 8394,
      "##reen": 8395,
      "##read": 8396,
      "##requ": 8397,
      "##rection": 8398,
      "##enton": 8399,
      "##entation": 8400,
      "##entine": 8401,
      "##entions": 8402,
      "##entional": 8403,
      "##omes": 8404,
      "##omic": 8405,
      "##ames": 8406,
      "##amental": 8407,
      "##ampton": 8408,
      "##amoto": 8409,
      "reen": 8410,
      "reel": 8411,
      "reut": 8412,
      "reop": 8413,
      "reub": 8414,
      "regr": 8415,
      "reinc": 8416,
      "reward": 8417,
      "repress": 8418,
      "rework": 8419,
      "rebound": 8420,
      "##unge": 8421,
      "##unciation": 8422,
      "##ctions": 8423,
      "##rio": 8424,
      "##rix": 8425,
      "##riam": 8426,
      "##riger": 8427,
      "##utz": 8428,
      "##uly": 8429,
      "##uling": 8430,
      "##ulum": 8431,
      "##ulates": 8432,
      "##ulars": 8433,
      "##ulative": 8434,
      "##ulously": 8435,
      "##osure": 8436,
      "##oslav": 8437,
      "sty": 8438,
      "ston": 8439,
      "sting": 8440,
      "stig": 8441,
      "stow": 8442,
      "stard": 8443,
      "still": 8444,
      "stub": 8445,
      "stru": 8446,
      "states": 8447,
      "stau": 8448,
      "stern": 8449,
      "stup": 8450,
      "stamp": 8451,
      "stark": 8452,
      "strom": 8453,
      "strad": 8454,
      "stiff": 8455,
      "steep": 8456,
      "stagn": 8457,
      "stagger": 8458,
      "##otics": 8459,
      "##idas": 8460,
      "##idly": 8461,
      "##iday": 8462,
      "##idian": 8463,
      "##idium": 8464,
      "##idents": 8465,
      "##adt": 8466,
      "##adv": 8467,
      "##aders": 8468,
      "##adder": 8469,
      "##lyph": 8470,
      "##aco": 8471,
      "##acity": 8472,
      "##acement": 8473,
      "##igen": 8474,
      "##igation": 8475,
      "##iguous": 8476,
      "##umo": 8477,
      "##umbered": 8478,
      "##terity": 8479,
      "##emy": 8480,
      "##emis": 8481,
      "##emason": 8482,
      "##employ": 8483,
      "chu": 8484,
      "chi": 8485,
      "chin": 8486,
      "ched": 8487,
      "chat": 8488,
      "chor": 8489,
      "chic": 8490,
      "chil": 8491,
      "chest": 8492,
      "chant": 8493,
      "chop": 8494,
      "chav": 8495,
      "chie": 8496,
      "chass": 8497,
      "chee": 8498,
      "chapp": 8499,
      "chew": 8500,
      "chester": 8501,
      "##agh": 8502,
      "##agers": 8503,
      "##agne": 8504,
      "conson": 8505,
      "conject": 8506,
      "##ird": 8507,
      "##iral": 8508,
      "##storm": 8509,
      "##stock": 8510,
      "##static": 8511,
      "##standing": 8512,
      "##imer": 8513,
      "##iman": 8514,
      "##imes": 8515,
      "##imeter": 8516,
      "##imoto": 8517,
      "ane": 8518,
      "anx": 8519,
      "anas": 8520,
      "anter": 8521,
      "anak": 8522,
      "anast": 8523,
      "anec": 8524,
      "ange": 8525,
      "unr": 8526,
      "uno": 8527,
      "unle": 8528,
      "unus": 8529,
      "unil": 8530,
      "unst": 8531,
      "unpr": 8532,
      "unsc": 8533,
      "unsp": 8534,
      "unve": 8535,
      "unto": 8536,
      "uncover": 8537,
      "unbel": 8538,
      "unanim": 8539,
      "unemploy": 8540,
      "##tha": 8541,
      "##thum": 8542,
      "##aba": 8543,
      "##andez": 8544,
      "##oding": 8545,
      "##odies": 8546,
      "##odia": 8547,
      "##odox": 8548,
      "##odrome": 8549,
      "##estersh": 8550,
      "enam": 8551,
      "enig": 8552,
      "ence": 8553,
      "ensh": 8554,
      "enorm": 8555,
      "enrol": 8556,
      "ensu": 8557,
      "envel": 8558,
      "enrich": 8559,
      "##phe": 8560,
      "##phy": 8561,
      "##phine": 8562,
      "##oway": 8563,
      "##cey": 8564,
      "##ppy": 8565,
      "shing": 8566,
      "shot": 8567,
      "shog": 8568,
      "shall": 8569,
      "shah": 8570,
      "shov": 8571,
      "shaw": 8572,
      "shank": 8573,
      "share": 8574,
      "shout": 8575,
      "dew": 8576,
      "dex": 8577,
      "dein": 8578,
      "dear": 8579,
      "deem": 8580,
      "deck": 8581,
      "degr": 8582,
      "decept": 8583,
      "degrad": 8584,
      "##cket": 8585,
      "##ogical": 8586,
      "##ogne": 8587,
      "##ogram": 8588,
      "##ogene": 8589,
      "##ogues": 8590,
      "##anto": 8591,
      "ali": 8592,
      "alp": 8593,
      "alan": 8594,
      "alman": 8595,
      "alder": 8596,
      "alge": 8597,
      "align": 8598,
      "alde": 8599,
      "alger": 8600,
      "alarm": 8601,
      "aller": 8602,
      "alchem": 8603,
      "arl": 8604,
      "ars": 8605,
      "aron": 8606,
      "arre": 8607,
      "arter": 8608,
      "arrog": 8609,
      "arsen": 8610,
      "prok": 8611,
      "proct": 8612,
      "proced": 8613,
      "progen": 8614,
      "proof": 8615,
      "proble": 8616,
      "proxim": 8617,
      "exos": 8618,
      "exact": 8619,
      "except": 8620,
      "excom": 8621,
      "extern": 8622,
      "exagger": 8623,
      "##opa": 8624,
      "##opes": 8625,
      "##opard": 8626,
      "##opath": 8627,
      "##oplan": 8628,
      "suz": 8629,
      "suk": 8630,
      "sugar": 8631,
      "spit": 8632,
      "sput": 8633,
      "spok": 8634,
      "spars": 8635,
      "spear": 8636,
      "spraw": 8637,
      "spokes": 8638,
      "spawn": 8639,
      "sponge": 8640,
      "thi": 8641,
      "thy": 8642,
      "thorn": 8643,
      "thurs": 8644,
      "##apse": 8645,
      "##apolis": 8646,
      "##ellular": 8647,
      "dise": 8648,
      "disill": 8649,
      "disass": 8650,
      "disgr": 8651,
      "disarm": 8652,
      "diseng": 8653,
      "dissu": 8654,
      "disemb": 8655,
      "disreg": 8656,
      "disorgan": 8657,
      "display": 8658,
      "disband": 8659,
      "disqual": 8660,
      "disadv": 8661,
      "##ava": 8662,
      "come": 8663,
      "comfort": 8664,
      "coe": 8665,
      "coh": 8666,
      "coy": 8667,
      "cov": 8668,
      "coat": 8669,
      "coch": 8670,
      "coach": 8671,
      "coco": 8672,
      "coup": 8673,
      "cocon": 8674,
      "cours": 8675,
      "coher": 8676,
      "coerc": 8677,
      "##endo": 8678,
      "##endon": 8679,
      "##ifa": 8680,
      "##ifier": 8681,
      "##ifiers": 8682,
      "##udi": 8683,
      "adal": 8684,
      "adir": 8685,
      "adject": 8686,
      "adren": 8687,
      "adequ": 8688,
      "##ibn": 8689,
      "##ibles": 8690,
      "##ibilities": 8691,
      "##inee": 8692,
      "##uges": 8693,
      "##ugged": 8694,
      "seg": 8695,
      "sej": 8696,
      "sein": 8697,
      "seac": 8698,
      "seag": 8699,
      "seiz": 8700,
      "segreg": 8701,
      "##loqu": 8702,
      "##look": 8703,
      "##izers": 8704,
      "##rane": 8705,
      "##rans": 8706,
      "##rank": 8707,
      "##aston": 8708,
      "imb": 8709,
      "lec": 8710,
      "ley": 8711,
      "leb": 8712,
      "lean": 8713,
      "leis": 8714,
      "lech": 8715,
      "lever": 8716,
      "leigh": 8717,
      "left": 8718,
      "leves": 8719,
      "level": 8720,
      "leban": 8721,
      "ami": 8722,
      "amy": 8723,
      "aman": 8724,
      "amar": 8725,
      "amus": 8726,
      "amid": 8727,
      "amend": 8728,
      "amorph": 8729,
      "amnes": 8730,
      "ammon": 8731,
      "amalg": 8732,
      "asi": 8733,
      "##ainty": 8734,
      "##ortive": 8735,
      "##ortions": 8736,
      "##undy": 8737,
      "clut": 8738,
      "clad": 8739,
      "clay": 8740,
      "clipp": 8741,
      "clitor": 8742,
      "clerg": 8743,
      "##plant": 8744,
      "##ishable": 8745,
      "scat": 8746,
      "scra": 8747,
      "scap": 8748,
      "scott": 8749,
      "scout": 8750,
      "scaff": 8751,
      "emil": 8752,
      "emir": 8753,
      "emper": 8754,
      "emiss": 8755,
      "nec": 8756,
      "neb": 8757,
      "nev": 8758,
      "neil": 8759,
      "neum": 8760,
      "neph": 8761,
      "neck": 8762,
      "roc": 8763,
      "rober": 8764,
      "roads": 8765,
      "##arta": 8766,
      "##arted": 8767,
      "orm": 8768,
      "##ionship": 8769,
      "pras": 8770,
      "prison": 8771,
      "##tones": 8772,
      "##icked": 8773,
      "##icken": 8774,
      "bec": 8775,
      "beet": 8776,
      "befri": 8777,
      "##mented": 8778,
      "##acking": 8779,
      "plain": 8780,
      "plaint": 8781,
      "##ango": 8782,
      "##athan": 8783,
      "##athed": 8784,
      "##athers": 8785,
      "elf": 8786,
      "elis": 8787,
      "elic": 8788,
      "elder": 8789,
      "quer": 8790,
      "ques": 8791,
      "quis": 8792,
      "quag": 8793,
      "quest": 8794,
      "quick": 8795,
      "quarr": 8796,
      "quiet": 8797,
      "queen": 8798,
      "##ahu": 8799,
      "##aha": 8800,
      "abe": 8801,
      "abl": 8802,
      "abel": 8803,
      "abbre": 8804,
      "##ourt": 8805,
      "phall": 8806,
      "phara": 8807,
      "phoen": 8808,
      "marj": 8809,
      "marv": 8810,
      "marx": 8811,
      "marse": 8812,
      "margar": 8813,
      "margin": 8814,
      "##ecraft": 8815,
      "##oves": 8816,
      "##overs": 8817,
      "##ika": 8818,
      "##shore": 8819,
      "hep": 8820,
      "heis": 8821,
      "heff": 8822,
      "height": 8823,
      "##bery": 8824,
      "##bering": 8825,
      "boos": 8826,
      "boog": 8827,
      "board": 8828,
      "bobc": 8829,
      "##acht": 8830,
      "##achers": 8831,
      "flat": 8832,
      "flaw": 8833,
      "flight": 8834,
      "flank": 8835,
      "flesh": 8836,
      "carc": 8837,
      "carb": 8838,
      "caric": 8839,
      "carro": 8840,
      "carab": 8841,
      "carav": 8842,
      "carib": 8843,
      "carbo": 8844,
      "careg": 8845,
      "carbon": 8846,
      "##geon": 8847,
      "parro": 8848,
      "parish": 8849,
      "parach": 8850,
      "parano": 8851,
      "paraph": 8852,
      "paragu": 8853,
      "##rons": 8854,
      "forem": 8855,
      "forest": 8856,
      "forward": 8857,
      "foresh": 8858,
      "resent": 8859,
      "resist": 8860,
      "resett": 8861,
      "resign": 8862,
      "subc": 8863,
      "subl": 8864,
      "subf": 8865,
      "subun": 8866,
      "subpl": 8867,
      "substr": 8868,
      "subsequ": 8869,
      "blas": 8870,
      "blog": 8871,
      "blue": 8872,
      "blank": 8873,
      "coloss": 8874,
      "colomb": 8875,
      "colloqu": 8876,
      "##actic": 8877,
      "##onso": 8878,
      "interl": 8879,
      "interven": 8880,
      "intermed": 8881,
      "interrog": 8882,
      "isk": 8883,
      "island": 8884,
      "israel": 8885,
      "pere": 8886,
      "perman": 8887,
      "periph": 8888,
      "precl": 8889,
      "preoccup": 8890,
      "prehist": 8891,
      "prejud": 8892,
      "reco": 8893,
      "recons": 8894,
      "recapt": 8895,
      "agra": 8896,
      "agam": 8897,
      "agree": 8898,
      "##obile": 8899,
      "##ansas": 8900,
      "##elyn": 8901,
      "##print": 8902,
      "bras": 8903,
      "brick": 8904,
      "brenn": 8905,
      "tram": 8906,
      "train": 8907,
      "traum": 8908,
      "track": 8909,
      "traged": 8910,
      "trache": 8911,
      "wholes": 8912,
      "intu": 8913,
      "intric": 8914,
      "interst": 8915,
      "intrac": 8916,
      "intrus": 8917,
      "intoler": 8918,
      "contest": 8919,
      "contrib": 8920,
      "mond": 8921,
      "monum": 8922,
      "monter": 8923,
      "monolog": 8924,
      "monaster": 8925,
      "monoch": 8926,
      "monopol": 8927,
      "##ancies": 8928,
      "obv": 8929,
      "obel": 8930,
      "indy": 8931,
      "indist": 8932,
      "indec": 8933,
      "indict": 8934,
      "indones": 8935,
      "schn": 8936,
      "schw": 8937,
      "scher": 8938,
      "schol": 8939,
      "schum": 8940,
      "schem": 8941,
      "schles": 8942,
      "schult": 8943,
      "schwar": 8944,
      "schmid": 8945,
      "##inders": 8946,
      "##ologies": 8947,
      "ong": 8948,
      "ones": 8949,
      "appl": 8950,
      "apple": 8951,
      "append": 8952,
      "appoin": 8953,
      "appoint": 8954,
      "barg": 8955,
      "bark": 8956,
      "barth": 8957,
      "barric": 8958,
      "sof": 8959,
      "soon": 8960,
      "soul": 8961,
      "sovere": 8962,
      "##yson": 8963,
      "##ysis": 8964,
      "mean": 8965,
      "meph": 8966,
      "meck": 8967,
      "meik": 8968,
      "meaning": 8969,
      "compass": 8970,
      "compuls": 8971,
      "complement": 8972,
      "erick": 8973,
      "ito": 8974,
      "itiner": 8975,
      "olm": 8976,
      "oliv": 8977,
      "olaf": 8978,
      "corv": 8979,
      "corp": 8980,
      "corner": 8981,
      "corrid": 8982,
      "corrupt": 8983,
      "corinth": 8984,
      "slog": 8985,
      "slug": 8986,
      "slight": 8987,
      "slamm": 8988,
      "ili": 8989,
      "ilai": 8990,
      "##ymph": 8991,
      "##asha": 8992,
      "##ashes": 8993,
      "##yline": 8994,
      "overr": 8995,
      "overha": 8996,
      "##etti": 8997,
      "##igner": 8998,
      "swim": 8999,
      "swans": 9000,
      "switch": 9001,
      "anto": 9002,
      "antan": 9003,
      "antide": 9004,
      "antenn": 9005,
      "antico": 9006,
      "##ither": 9007,
      "outfl": 9008,
      "outdo": 9009,
      "cret": 9010,
      "cress": 9011,
      "criter": 9012,
      "tek": 9013,
      "moham": 9014,
      "mould": 9015,
      "incis": 9016,
      "incent": 9017,
      "incub": 9018,
      "incred": 9019,
      "incarn": 9020,
      "incurs": 9021,
      "accus": 9022,
      "accred": 9023,
      "manh": 9024,
      "manch": 9025,
      "manusc": 9026,
      "##ermost": 9027,
      "assess": 9028,
      "assign": 9029,
      "assail": 9030,
      "guy": 9031,
      "guine": 9032,
      "guang": 9033,
      "guards": 9034,
      "guitar": 9035,
      "guðr": 9036,
      "infin": 9037,
      "infat": 9038,
      "infant": 9039,
      "infring": 9040,
      "infrequ": 9041,
      "hark": 9042,
      "harsh": 9043,
      "##ongo": 9044,
      "##boat": 9045,
      "##boats": 9046,
      "##boards": 9047,
      "commut": 9048,
      "omet": 9049,
      "omyr": 9050,
      "imped": 9051,
      "imposs": 9052,
      "impuls": 9053,
      "edu": 9054,
      "edin": 9055,
      "edge": 9056,
      "editor": 9057,
      "web": 9058,
      "wein": 9059,
      "wear": 9060,
      "weis": 9061,
      "weap": 9062,
      "weight": 9063,
      "wehr": 9064,
      "ska": 9065,
      "ski": 9066,
      "sket": 9067,
      "skirm": 9068,
      "##ennes": 9069,
      "ica": 9070,
      "ici": 9071,
      "##erty": 9072,
      "##erto": 9073,
      "##into": 9074,
      "##intosh": 9075,
      "##atorium": 9076,
      "steg": 9077,
      "stev": 9078,
      "steel": 9079,
      "##etsu": 9080,
      "diagon": 9081,
      "mcle": 9082,
      "mcad": 9083,
      "mcdon": 9084,
      "##itionally": 9085,
      "##heads": 9086,
      "grab": 9087,
      "graf": 9088,
      "pew": 9089,
      "pean": 9090,
      "pept": 9091,
      "hybrid": 9092,
      "reli": 9093,
      "relent": 9094,
      "relation": 9095,
      "reloc": 9096,
      "relev": 9097,
      "releg": 9098,
      "reluct": 9099,
      "avon": 9100,
      "avail": 9101,
      "brach": 9102,
      "brahm": 9103,
      "apart": 9104,
      "##ledge": 9105,
      "evid": 9106,
      "evap": 9107,
      "pole": 9108,
      "poul": 9109,
      "point": 9110,
      "desh": 9111,
      "desert": 9112,
      "deserv": 9113,
      "truth": 9114,
      "trunk": 9115,
      "##lected": 9116,
      "##lection": 9117,
      "breed": 9118,
      "bread": 9119,
      "breck": 9120,
      "urn": 9121,
      "urm": 9122,
      "urs": 9123,
      "urugu": 9124,
      "refin": 9125,
      "refurb": 9126,
      "refriger": 9127,
      "burd": 9128,
      "burst": 9129,
      "mines": 9130,
      "minel": 9131,
      "minig": 9132,
      "miniat": 9133,
      "metac": 9134,
      "metrop": 9135,
      "metamorph": 9136,
      "surm": 9137,
      "surve": 9138,
      "surpass": 9139,
      "##itsu": 9140,
      "consid": 9141,
      "consist": 9142,
      "consec": 9143,
      "glen": 9144,
      "glim": 9145,
      "gladi": 9146,
      "idi": 9147,
      "remot": 9148,
      "remaster": 9149,
      "remember": 9150,
      "defend": 9151,
      "deform": 9152,
      "brock": 9153,
      "brough": 9154,
      "broads": 9155,
      "igne": 9156,
      "repro": 9157,
      "repet": 9158,
      "repair": 9159,
      "reprod": 9160,
      "repuls": 9161,
      "repatri": 9162,
      "atten": 9163,
      "attrib": 9164,
      "attribut": 9165,
      "attempt": 9166,
      "door": 9167,
      "dopp": 9168,
      "dock": 9169,
      "doug": 9170,
      "dough": 9171,
      "##ropical": 9172,
      "##roportion": 9173,
      "regg": 9174,
      "region": 9175,
      "regular": 9176,
      "retail": 9177,
      "retract": 9178,
      "retrie": 9179,
      "return": 9180,
      "##ixed": 9181,
      "confid": 9182,
      "confess": 9183,
      "confron": 9184,
      "confuc": 9185,
      "confisc": 9186,
      "conflic": 9187,
      "confirm": 9188,
      "opa": 9189,
      "opin": 9190,
      "opter": 9191,
      "invinc": 9192,
      "##ribe": 9193,
      "oster": 9194,
      "##evic": 9195,
      "##evelop": 9196,
      "fear": 9197,
      "feas": 9198,
      "hou": 9199,
      "hof": 9200,
      "herman": 9201,
      "poly": 9202,
      "politic": 9203,
      "##otten": 9204,
      "fool": 9205,
      "fount": 9206,
      "footh": 9207,
      "irres": 9208,
      "irresp": 9209,
      "stras": 9210,
      "strass": 9211,
      "cald": 9212,
      "caled": 9213,
      "calig": 9214,
      "calend": 9215,
      "calder": 9216,
      "andes": 9217,
      "andrian": 9218,
      "sala": 9219,
      "salt": 9220,
      "insom": 9221,
      "insec": 9222,
      "insuff": 9223,
      "toy": 9224,
      "toul": 9225,
      "utter": 9226,
      "expend": 9227,
      "expatri": 9228,
      "gover": 9229,
      "goose": 9230,
      "goeb": 9231,
      "transact": 9232,
      "transfer": 9233,
      "deliv": 9234,
      "deliver": 9235,
      "geh": 9236,
      "gear": 9237,
      "geoff": 9238,
      "##inned": 9239,
      "entr": 9240,
      "entrepr": 9241,
      "buy": 9242,
      "bucc": 9243,
      "redd": 9244,
      "redist": 9245,
      "redsh": 9246,
      "redef": 9247,
      "redoub": 9248,
      "redeem": 9249,
      "rediscover": 9250,
      "redevelop": 9251,
      "decad": 9252,
      "decim": 9253,
      "decomm": 9254,
      "decomp": 9255,
      "deput": 9256,
      "deport": 9257,
      "caps": 9258,
      "##aldi": 9259,
      "extrac": 9260,
      "magy": 9261,
      "magaz": 9262,
      "embed": 9263,
      "emble": 9264,
      "embroid": 9265,
      "distill": 9266,
      "distrib": 9267,
      "oda": 9268,
      "odd": 9269,
      "##quez": 9270,
      "aksh": 9271,
      "reven": 9272,
      "revel": 9273,
      "revital": 9274,
      "underg": 9275,
      "underw": 9276,
      "undergo": 9277,
      "archbish": 9278,
      "archetyp": 9279,
      "belle": 9280,
      "demean": 9281,
      "demobil": 9282,
      "ett": 9283,
      "epit": 9284,
      "epith": 9285,
      "epile": 9286,
      "epiph": 9287,
      "frey": 9288,
      "##ews": 9289,
      "grot": 9290,
      "joa": 9291,
      "##beat": 9292,
      "##umbled": 9293,
      "alls": 9294,
      "allah": 9295,
      "##uchi": 9296,
      "unden": 9297,
      "undoub": 9298,
      "superc": 9299,
      "detect": 9300,
      "terrac": 9301,
      "##duce": 9302,
      "cyber": 9303,
      "knight": 9304,
      "media": 9305,
      "macle": 9306,
      "snipp": 9307,
      "serb": 9308,
      "seren": 9309,
      "serge": 9310,
      "devon": 9311,
      "devot": 9312,
      "discern": 9313,
      "discret": 9314,
      "discrep": 9315,
      "airl": 9316,
      "curs": 9317,
      "creep": 9318,
      "drav": 9319,
      "hamm": 9320,
      "hammer": 9321,
      "hammers": 9322,
      "laus": 9323,
      "laund": 9324,
      "laure": 9325,
      "laugh": 9326,
      "turb": 9327,
      "turbo": 9328,
      "##fordshire": 9329,
      "theolog": 9330,
      "genu": 9331,
      "misch": 9332,
      "miscon": 9333,
      "palat": 9334,
      "palis": 9335,
      "palai": 9336,
      "berk": 9337,
      "berry": 9338,
      "berkel": 9339,
      "divor": 9340,
      "solo": 9341,
      "solom": 9342,
      "solub": 9343,
      "peters": 9344,
      "petrog": 9345,
      "persp": 9346,
      "upro": 9347,
      "upst": 9348,
      "upgrad": 9349,
      "##umming": 9350,
      "annul": 9351,
      "annoy": 9352,
      "annih": 9353,
      "croat": 9354,
      "fren": 9355,
      "french": 9356,
      "iform": 9357,
      "malays": 9358,
      "midt": 9359,
      "midship": 9360,
      "rhyth": 9361,
      "endow": 9362,
      "afor": 9363,
      "musc": 9364,
      "musl": 9365,
      "musk": 9366,
      "ocyt": 9367,
      "verd": 9368,
      "verb": 9369,
      "valu": 9370,
      "valky": 9371,
      "##brand": 9372,
      "artific": 9373,
      "presc": 9374,
      "electric": 9375,
      "mait": 9376,
      "maus": 9377,
      "simul": 9378,
      "simult": 9379,
      "tree": 9380,
      "trev": 9381,
      "concern": 9382,
      "concili": 9383,
      "concurr": 9384,
      "homoph": 9385,
      "homosex": 9386,
      "motors": 9387,
      "psy": 9388,
      "psal": 9389,
      "usa": 9390,
      "cheet": 9391,
      "cheap": 9392,
      "engra": 9393,
      "english": 9394,
      "awk": 9395,
      "afford": 9396,
      "affection": 9397,
      "drunk": 9398,
      "helic": 9399,
      "restra": 9400,
      "restric": 9401,
      "restaur": 9402,
      "restruct": 9403,
      "symp": 9404,
      "sympt": 9405,
      "cany": 9406,
      "franco": 9407,
      "holly": 9408,
      "handed": 9409,
      "handic": 9410,
      "notting": 9411,
      "notice": 9412,
      "partner": 9413,
      "radi": 9414,
      "encro": 9415,
      "encamp": 9416,
      "disple": 9417,
      "disproportion": 9418,
      "newsp": 9419,
      "newcom": 9420,
      "ache": 9421,
      "acha": 9422,
      "achiev": 9423,
      "balcon": 9424,
      "ecos": 9425,
      "finish": 9426,
      "financ": 9427,
      "filip": 9428,
      "##ounce": 9429,
      "##ounting": 9430,
      "##eshi": 9431,
      "##eship": 9432,
      "protoc": 9433,
      "humph": 9434,
      "ivan": 9435,
      "ival": 9436,
      "landl": 9437,
      "landown": 9438,
      "landsl": 9439,
      "portray": 9440,
      "raph": 9441,
      "synonym": 9442,
      "troop": 9443,
      "volunt": 9444,
      "volcan": 9445,
      "##oufl": 9446,
      "##unning": 9447,
      "center": 9448,
      "centur": 9449,
      "central": 9450,
      "esch": 9451,
      "mccorm": 9452,
      "self": 9453,
      "viet": 9454,
      "##regn": 9455,
      "immed": 9456,
      "immun": 9457,
      "immort": 9458,
      "ather": 9459,
      "athen": 9460,
      "warb": 9461,
      "warri": 9462,
      "walt": 9463,
      "##uffs": 9464,
      "##irable": 9465,
      "##linary": 9466,
      "borne": 9467,
      "borough": 9468,
      "khaz": 9469,
      "##ophon": 9470,
      "excell": 9471,
      "##iewicz": 9472,
      "elli": 9473,
      "ells": 9474,
      "ellip": 9475,
      "##burgh": 9476,
      "ferg": 9477,
      "haus": 9478,
      "collier": 9479,
      "catap": 9480,
      "catast": 9481,
      "eleph": 9482,
      "galax": 9483,
      "honour": 9484,
      "melanch": 9485,
      "posit": 9486,
      "posts": 9487,
      "posthum": 9488,
      "wilh": 9489,
      "wilf": 9490,
      "##flies": 9491,
      "dissem": 9492,
      "basal": 9493,
      "horr": 9494,
      "punj": 9495,
      "satur": 9496,
      "satell": 9497,
      "##laus": 9498,
      "explan": 9499,
      "hydra": 9500,
      "backd": 9501,
      "downlo": 9502,
      "garner": 9503,
      "mahab": 9504,
      "penet": 9505,
      "squad": 9506,
      "squir": 9507,
      "squee": 9508,
      "square": 9509,
      "torr": 9510,
      "##neys": 9511,
      "profession": 9512,
      "casem": 9513,
      "casual": 9514,
      "furst": 9515,
      "istan": 9516,
      "million": 9517,
      "ruf": 9518,
      "timber": 9519,
      "##iques": 9520,
      "##iquit": 9521,
      "##oof": 9522,
      "bulk": 9523,
      "bulgar": 9524,
      "microph": 9525,
      "northern": 9526,
      "plebe": 9527,
      "passion": 9528,
      "suscept": 9529,
      "venk": 9530,
      "vener": 9531,
      "venet": 9532,
      "venge": 9533,
      "##liest": 9534,
      "##ports": 9535,
      "provinc": 9536,
      "provision": 9537,
      "denomin": 9538,
      "ethyl": 9539,
      "izz": 9540,
      "karth": 9541,
      "labour": 9542,
      "multim": 9543,
      "multipl": 9544,
      "sampl": 9545,
      "semif": 9546,
      "westm": 9547,
      "straf": 9548,
      "straight": 9549,
      "respect": 9550,
      "southern": 9551,
      "bench": 9552,
      "faul": 9553,
      "noj": 9554,
      "oxy": 9555,
      "oppos": 9556,
      "riot": 9557,
      "ambul": 9558,
      "ambass": 9559,
      "ambush": 9560,
      "half": 9561,
      "koh": 9562,
      "audi": 9563,
      "camoufl": 9564,
      "dao": 9565,
      "flee": 9566,
      "flex": 9567,
      "fleet": 9568,
      "games": 9569,
      "madh": 9570,
      "panor": 9571,
      "teleg": 9572,
      "##iority": 9573,
      "strike": 9574,
      "unsur": 9575,
      "unsett": 9576,
      "unsatis": 9577,
      "unpre": 9578,
      "unpop": 9579,
      "should": 9580,
      "alban": 9581,
      "claust": 9582,
      "counterc": 9583,
      "counteratt": 9584,
      "bolsh": 9585,
      "dunl": 9586,
      "facult": 9587,
      "facilit": 9588,
      "martyr": 9589,
      "natal": 9590,
      "pyro": 9591,
      "postm": 9592,
      "river": 9593,
      "rival": 9594,
      "##entials": 9595,
      "replen": 9596,
      "difficult": 9597,
      "psyched": 9598,
      "aeronaut": 9599,
      "bhar": 9600,
      "bhag": 9601,
      "castle": 9602,
      "cartil": 9603,
      "destro": 9604,
      "destruct": 9605,
      "golds": 9606,
      "hurric": 9607,
      "mathematic": 9608,
      "prag": 9609,
      "prab": 9610,
      "zeal": 9611,
      "innoc": 9612,
      "##enthal": 9613,
      "connect": 9614,
      "address": 9615,
      "betel": 9616,
      "clock": 9617,
      "grizz": 9618,
      "ikh": 9619,
      "luf": 9620,
      "luft": 9621,
      "navar": 9622,
      "popul": 9623,
      "racco": 9624,
      "target": 9625,
      "wallach": 9626,
      "##factory": 9627,
      "christoph": 9628,
      "absent": 9629,
      "inflamm": 9630,
      "ignor": 9631,
      "magnet": 9632,
      "magnific": 9633,
      "budget": 9634,
      "battal": 9635,
      "battles": 9636,
      "cabin": 9637,
      "dimorph": 9638,
      "eyew": 9639,
      "europe": 9640,
      "hench": 9641,
      "logar": 9642,
      "love": 9643,
      "lawr": 9644,
      "lucas": 9645,
      "sabb": 9646,
      "termin": 9647,
      "##writing": 9648,
      "##writer": 9649,
      "##writers": 9650,
      "##worthy": 9651,
      "photos": 9652,
      "marked": 9653,
      "market": 9654,
      "johann": 9655,
      "effort": 9656,
      "glob": 9657,
      "kilow": 9658,
      "kilomet": 9659,
      "larg": 9660,
      "therap": 9661,
      "ultim": 9662,
      "descend": 9663,
      "bayon": 9664,
      "cinem": 9665,
      "funer": 9666,
      "memo": 9667,
      "sacra": 9668,
      "slov": 9669,
      "uki": 9670,
      "vaugh": 9671,
      "##ielder": 9672,
      "##kinson": 9673,
      "inspir": 9674,
      "require": 9675,
      "uncle": 9676,
      "uncond": 9677,
      "uncert": 9678,
      "prosec": 9679,
      "expert": 9680,
      "dismant": 9681,
      "combat": 9682,
      "acquaint": 9683,
      "hypn": 9684,
      "babyl": 9685,
      "benefact": 9686,
      "ceram": 9687,
      "ceremon": 9688,
      "digit": 9689,
      "girls": 9690,
      "molyb": 9691,
      "mistre": 9692,
      "machin": 9693,
      "micha": 9694,
      "michel": 9695,
      "singap": 9696,
      "##while": 9697,
      "##where": 9698,
      "street": 9699,
      "streps": 9700,
      "neurot": 9701,
      "ornament": 9702,
      "obliv": 9703,
      "revolution": 9704,
      "business": 9705,
      "bottom": 9706,
      "ectomy": 9707,
      "fuj": 9708,
      "fuhr": 9709,
      "hunting": 9710,
      "housew": 9711,
      "lieuten": 9712,
      "meso": 9713,
      "mesopotam": 9714,
      "mississ": 9715,
      "octop": 9716,
      "youth": 9717,
      "zhu": 9718,
      "##identally": 9719,
      "declar": 9720,
      "aspir": 9721,
      "internation": 9722,
      "wheat": 9723,
      "surviv": 9724,
      "private": 9725,
      "dalmat": 9726,
      "fundra": 9727,
      "fundament": 9728,
      "giul": 9729,
      "kaiser": 9730,
      "kinder": 9731,
      "living": 9732,
      "nicol": 9733,
      "pedest": 9734,
      "wolf": 9735,
      "winds": 9736,
      "##ystidia": 9737,
      "##entionally": 9738,
      "analog": 9739,
      "enlight": 9740,
      "##ogenic": 9741,
      "succumb": 9742,
      "thrash": 9743,
      "scrut": 9744,
      "scratch": 9745,
      "preval": 9746,
      "preview": 9747,
      "tradem": 9748,
      "burgh": 9749,
      "motorcy": 9750,
      "husk": 9751,
      "hotsp": 9752,
      "habit": 9753,
      "horse": 9754,
      "juven": 9755,
      "jacqu": 9756,
      "nightcl": 9757,
      "oscill": 9758,
      "penns": 9759,
      "rangef": 9760,
      "sorcer": 9761,
      "testimon": 9762,
      "##grade": 9763,
      "##gradu": 9764,
      "initi": 9765,
      "enterpr": 9766,
      "sharp": 9767,
      "algor": 9768,
      "exclus": 9769,
      "clarin": 9770,
      "subtit": 9771,
      "broadcast": 9772,
      "ausp": 9773,
      "celest": 9774,
      "cancell": 9775,
      "dynast": 9776,
      "gruppen": 9777,
      "hinder": 9778,
      "hibern": 9779,
      "lesb": 9780,
      "lineback": 9781,
      "miy": 9782,
      "nickn": 9783,
      "pavil": 9784,
      "tribun": 9785,
      "ucle": 9786,
      "inquir": 9787,
      "answ": 9788,
      "prefect": 9789,
      "britann": 9790,
      "megal": 9791,
      "transpar": 9792,
      "circumst": 9793,
      "coward": 9794,
      "cathed": 9795,
      "futur": 9796,
      "gasco": 9797,
      "langu": 9798,
      "pilgrim": 9799,
      "rendez": 9800,
      "reneg": 9801,
      "sidel": 9802,
      "tunis": 9803,
      "teleph": 9804,
      "victor": 9805,
      "wavel": 9806,
      "##aimed": 9807,
      "##market": 9808,
      "##bourne": 9809,
      "##iciently": 9810,
      "chamber": 9811,
      "change": 9812,
      "allev": 9813,
      "transcend": 9814,
      "doctr": 9815,
      "middles": 9816,
      "besie": 9817,
      "citiz": 9818,
      "dwind": 9819,
      "dolph": 9820,
      "eucl": 9821,
      "eccles": 9822,
      "mascul": 9823,
      "nutri": 9824,
      "napole": 9825,
      "spher": 9826,
      "tasman": 9827,
      "tiruch": 9828,
      "toky": 9829,
      "chromos": 9830,
[...]
